{
  "version": "1.0",
  "truncation": null,
  "padding": null,
  "added_tokens": [
    {
      "id": 0,
      "content": "[PAD]",
      "single_word": false,
      "lstrip": false,
      "rstrip": false,
      "normalized": false,
      "special": true
    },
    {
      "id": 1,
      "content": "[UNK]",
      "single_word": false,
      "lstrip": false,
      "rstrip": false,
      "normalized": false,
      "special": true
    },
    {
      "id": 2,
      "content": "[CLS]",
      "single_word": false,
      "lstrip": false,
      "rstrip": false,
      "normalized": false,
      "special": true
    },
    {
      "id": 3,
      "content": "[SEP]",
      "single_word": false,
      "lstrip": false,
      "rstrip": false,
      "normalized": false,
      "special": true
    },
    {
      "id": 4,
      "content": "[MASK]",
      "single_word": false,
      "lstrip": false,
      "rstrip": false,
      "normalized": false,
      "special": true
    }
  ],
  "normalizer": null,
  "pre_tokenizer": {
    "type": "Whitespace"
  },
  "post_processor": null,
  "decoder": {
    "type": "BPEDecoder",
    "suffix": "</w>"
  },
  "model": {
    "type": "BPE",
    "dropout": null,
    "unk_token": "[UNK]",
    "continuing_subword_prefix": null,
    "end_of_word_suffix": null,
    "fuse_unk": false,
    "byte_fallback": false,
    "ignore_merges": false,
    "vocab": {
      "[PAD]": 0,
      "[UNK]": 1,
      "[CLS]": 2,
      "[SEP]": 3,
      "[MASK]": 4,
      "\u0001": 5,
      "\u0002": 6,
      "\u0003": 7,
      "\u000f": 8,
      "\u0010": 9,
      "\u0011": 10,
      "\u0012": 11,
      "\u0013": 12,
      "\u0014": 13,
      "\u0015": 14,
      "\u001a": 15,
      "\u001f": 16,
      "!": 17,
      "\"": 18,
      "#": 19,
      "$": 20,
      "%": 21,
      "&": 22,
      "'": 23,
      "(": 24,
      ")": 25,
      "*": 26,
      "+": 27,
      ",": 28,
      "-": 29,
      ".": 30,
      "/": 31,
      "0": 32,
      "1": 33,
      "2": 34,
      "3": 35,
      "4": 36,
      "5": 37,
      "6": 38,
      "7": 39,
      "8": 40,
      "9": 41,
      ":": 42,
      ";": 43,
      "<": 44,
      "=": 45,
      ">": 46,
      "?": 47,
      "@": 48,
      "A": 49,
      "B": 50,
      "C": 51,
      "D": 52,
      "E": 53,
      "F": 54,
      "G": 55,
      "H": 56,
      "I": 57,
      "J": 58,
      "K": 59,
      "L": 60,
      "M": 61,
      "N": 62,
      "O": 63,
      "P": 64,
      "Q": 65,
      "R": 66,
      "S": 67,
      "T": 68,
      "U": 69,
      "V": 70,
      "W": 71,
      "X": 72,
      "Y": 73,
      "Z": 74,
      "[": 75,
      "\\": 76,
      "]": 77,
      "^": 78,
      "_": 79,
      "`": 80,
      "a": 81,
      "b": 82,
      "c": 83,
      "d": 84,
      "e": 85,
      "f": 86,
      "g": 87,
      "h": 88,
      "i": 89,
      "j": 90,
      "k": 91,
      "l": 92,
      "m": 93,
      "n": 94,
      "o": 95,
      "p": 96,
      "q": 97,
      "r": 98,
      "s": 99,
      "t": 100,
      "u": 101,
      "v": 102,
      "w": 103,
      "x": 104,
      "y": 105,
      "z": 106,
      "{": 107,
      "|": 108,
      "}": 109,
      "~": 110,
      "§": 111,
      "©": 112,
      "¯": 113,
      "±": 114,
      "µ": 115,
      "·": 116,
      "»": 117,
      "Ç": 118,
      "×": 119,
      "à": 120,
      "á": 121,
      "æ": 122,
      "é": 123,
      "î": 124,
      "ó": 125,
      "ô": 126,
      "÷": 127,
      "ø": 128,
      "ı": 129,
      "Ł": 130,
      "ŷ": 131,
      "ˆ": 132,
      "˜": 133,
      "̀": 134,
      "́": 135,
      "̂": 136,
      "̃": 137,
      "̄": 138,
      "̆": 139,
      "̇": 140,
      "̈": 141,
      "̊": 142,
      "̋": 143,
      "̌": 144,
      "̧": 145,
      "Θ": 146,
      "Σ": 147,
      "Φ": 148,
      "α": 149,
      "β": 150,
      "γ": 151,
      "δ": 152,
      "η": 153,
      "θ": 154,
      "λ": 155,
      "ν": 156,
      "π": 157,
      "σ": 158,
      "τ": 159,
      "φ": 160,
      "χ": 161,
      "ϵ": 162,
      "؟": 163,
      "ً": 164,
      "َ": 165,
      "ُ": 166,
      "ِ": 167,
      "ّ": 168,
      "அ": 169,
      "எ": 170,
      "ஒ": 171,
      "க": 172,
      "ச": 173,
      "ட": 174,
      "ண": 175,
      "த": 176,
      "ந": 177,
      "ன": 178,
      "ப": 179,
      "ம": 180,
      "ய": 181,
      "ர": 182,
      "ற": 183,
      "ல": 184,
      "ள": 185,
      "வ": 186,
      "ா": 187,
      "ி": 188,
      "ு": 189,
      "ெ": 190,
      "ே": 191,
      "ை": 192,
      "்": 193,
      "ị": 194,
      "Ọ": 195,
      "ọ": 196,
      "ụ": 197,
      "–": 198,
      "—": 199,
      "‘": 200,
      "’": 201,
      "“": 202,
      "”": 203,
      "•": 204,
      "…": 205,
      "‫": 206,
      "‬": 207,
      "′": 208,
      "←": 209,
      "↑": 210,
      "→": 211,
      "↓": 212,
      "↵": 213,
      "⇒": 214,
      "⇔": 215,
      "⇠": 216,
      "∀": 217,
      "∂": 218,
      "∃": 219,
      "∅": 220,
      "∆": 221,
      "∇": 222,
      "∈": 223,
      "∑": 224,
      "−": 225,
      "∗": 226,
      "√": 227,
      "∞": 228,
      "∧": 229,
      "∩": 230,
      "∪": 231,
      "∼": 232,
      "≈": 233,
      "≤": 234,
      "≥": 235,
      "⊕": 236,
      "⋮": 237,
      "⋯": 238,
      "⌃": 239,
      "⌧": 240,
      "␣": 241,
      "◦": 242,
      "✕": 243,
      "⦿": 244,
      "⨉": 245,
      "。": 246,
      "一": 247,
      "万": 248,
      "上": 249,
      "中": 250,
      "为": 251,
      "了": 252,
      "二": 253,
      "以": 254,
      "们": 255,
      "会": 256,
      "但": 257,
      "信": 258,
      "元": 259,
      "入": 260,
      "决": 261,
      "准": 262,
      "出": 263,
      "切": 264,
      "利": 265,
      "到": 266,
      "前": 267,
      "动": 268,
      "区": 269,
      "及": 270,
      "发": 271,
      "号": 272,
      "各": 273,
      "后": 274,
      "和": 275,
      "国": 276,
      "图": 277,
      "在": 278,
      "地": 279,
      "城": 280,
      "基": 281,
      "外": 282,
      "大": 283,
      "天": 284,
      "太": 285,
      "姚": 286,
      "子": 287,
      "层": 288,
      "展": 289,
      "市": 290,
      "干": 291,
      "平": 292,
      "年": 293,
      "庄": 294,
      "建": 295,
      "开": 296,
      "张": 297,
      "得": 298,
      "忘": 299,
      "总": 300,
      "意": 301,
      "我": 302,
      "所": 303,
      "才": 304,
      "捐": 305,
      "捞": 306,
      "探": 307,
      "推": 308,
      "收": 309,
      "日": 310,
      "明": 311,
      "昨": 312,
      "是": 313,
      "最": 314,
      "月": 315,
      "核": 316,
      "梅": 317,
      "次": 318,
      "款": 319,
      "比": 320,
      "水": 321,
      "江": 322,
      "沥": 323,
      "泡": 324,
      "海": 325,
      "清": 326,
      "现": 327,
      "用": 328,
      "百": 329,
      "的": 330,
      "碎": 331,
      "神": 332,
      "空": 333,
      "立": 334,
      "第": 335,
      "精": 336,
      "索": 337,
      "紧": 338,
      "美": 339,
      "者": 340,
      "而": 341,
      "荃": 342,
      "菜": 343,
      "言": 344,
      "议": 345,
      "设": 346,
      "赛": 347,
      "软": 348,
      "较": 349,
      "过": 350,
      "进": 351,
      "远": 352,
      "违": 353,
      "连": 354,
      "通": 355,
      "金": 356,
      "间": 357,
      "静": 358,
      "韩": 359,
      "项": 360,
      "鱼": 361,
      "고": 362,
      "나": 363,
      "내": 364,
      "너": 365,
      "넓": 366,
      "다": 367,
      "덕": 368,
      "라": 369,
      "려": 370,
      "면": 371,
      "무": 372,
      "보": 373,
      "언": 374,
      "에": 375,
      "올": 376,
      "위": 377,
      "은": 378,
      "": 379,
      "": 380,
      "": 381,
      "": 382,
      "": 383,
      "": 384,
      "": 385,
      "": 386,
      "": 387,
      "": 388,
      "": 389,
      "": 390,
      "": 391,
      "": 392,
      "": 393,
      "": 394,
      "ﬀ": 395,
      "ﬃ": 396,
      "ﭼ": 397,
      "ﮐ": 398,
      "ﮕ": 399,
      "ﯼ": 400,
      "ﯽ": 401,
      "ﺀ": 402,
      "ﺁ": 403,
      "ﺃ": 404,
      "ﺇ": 405,
      "ﺍ": 406,
      "ﺎ": 407,
      "ﺏ": 408,
      "ﺑ": 409,
      "ﺒ": 410,
      "ﺓ": 411,
      "ﺕ": 412,
      "ﺖ": 413,
      "ﺗ": 414,
      "ﺘ": 415,
      "ﺝ": 416,
      "ﺟ": 417,
      "ﺡ": 418,
      "ﺣ": 419,
      "ﺧ": 420,
      "ﺩ": 421,
      "ﺪ": 422,
      "ﺬ": 423,
      "ﺭ": 424,
      "ﺮ": 425,
      "ﺯ": 426,
      "ﺰ": 427,
      "ﺳ": 428,
      "ﺴ": 429,
      "ﺷ": 430,
      "ﺸ": 431,
      "ﻄ": 432,
      "ﻉ": 433,
      "ﻔ": 434,
      "ﻙ": 435,
      "ﻞ": 436,
      "ﻠ": 437,
      "ﻣ": 438,
      "ﻤ": 439,
      "ﻥ": 440,
      "ﻦ": 441,
      "ﻧ": 442,
      "ﻨ": 443,
      "ﻩ": 444,
      "ﻪ": 445,
      "ﻫ": 446,
      "ﻬ": 447,
      "ﻭ": 448,
      "ﻮ": 449,
      "ﻱ": 450,
      "ﻳ": 451,
      "ﻴ": 452,
      "ﻻ": 453,
      "，": 454,
      "𝓛": 455,
      "𝛼": 456,
      "𝜏": 457,
      "𝜽": 458,
      "🀎": 459,
      "th": 460,
      "in": 461,
      "an": 462,
      "re": 463,
      "on": 464,
      "the": 465,
      "en": 466,
      "ti": 467,
      "or": 468,
      "er": 469,
      "al": 470,
      "ing": 471,
      "at": 472,
      "se": 473,
      "is": 474,
      "of": 475,
      "tion": 476,
      "ar": 477,
      "es": 478,
      "to": 479,
      "ed": 480,
      "and": 481,
      "ro": 482,
      "ch": 483,
      "as": 484,
      "le": 485,
      "co": 486,
      "st": 487,
      "ent": 488,
      "de": 489,
      "it": 490,
      "for": 491,
      "ation": 492,
      "ut": 493,
      "mp": 494,
      "ce": 495,
      "ra": 496,
      "si": 497,
      "he": 498,
      "ve": 499,
      "we": 500,
      "ct": 501,
      "ex": 502,
      "mo": 503,
      "me": 504,
      "ig": 505,
      "be": 506,
      "ur": 507,
      "ic": 508,
      "un": 509,
      "wor": 510,
      "lo": 511,
      "ly": 512,
      "res": 513,
      "ag": 514,
      "pro": 515,
      "20": 516,
      "that": 517,
      "et": 518,
      "il": 519,
      "ul": 520,
      "con": 521,
      "ith": 522,
      "us": 523,
      "The": 524,
      "word": 525,
      "di": 526,
      "tic": 527,
      "ab": 528,
      "are": 529,
      "ap": 530,
      "ter": 531,
      "qu": 532,
      "ver": 533,
      "li": 534,
      "fe": 535,
      "ri": 536,
      "so": 537,
      "del": 538,
      "um": 539,
      "use": 540,
      "ext": 541,
      "ang": 542,
      "pe": 543,
      "with": 544,
      "ow": 545,
      "ma": 546,
      "model": 547,
      "ne": 548,
      "ad": 549,
      "ke": 550,
      "19": 551,
      "po": 552,
      "ction": 553,
      "by": 554,
      "ren": 555,
      "ach": 556,
      "ate": 557,
      "la": 558,
      "hi": 559,
      "par": 560,
      "rom": 561,
      "em": 562,
      "age": 563,
      "from": 564,
      "ure": 565,
      "all": 566,
      "ol": 567,
      "der": 568,
      "igh": 569,
      "ot": 570,
      "angu": 571,
      "ding": 572,
      "put": 573,
      "per": 574,
      "tr": 575,
      "ity": 576,
      "ir": 577,
      "comp": 578,
      "form": 579,
      "ans": 580,
      "ts": 581,
      "amp": 582,
      "cl": 583,
      "su": 584,
      "ase": 585,
      "ac": 586,
      ").": 587,
      ".,": 588,
      "can": 589,
      "pres": 590,
      "pre": 591,
      "ence": 592,
      "langu": 593,
      "text": 594,
      "out": 595,
      "te": 596,
      "tra": 597,
      "ces": 598,
      "sh": 599,
      "ken": 600,
      "ther": 601,
      "ll": 602,
      "In": 603,
      "like": 604,
      "tive": 605,
      "dis": 606,
      "spe": 607,
      "each": 608,
      "ment": 609,
      "feren": 610,
      "this": 611,
      "do": 612,
      "vi": 613,
      "enti": 614,
      "iz": 615,
      "sy": 616,
      "du": 617,
      "ha": 618,
      "prob": 619,
      "words": 620,
      "one": 621,
      "cor": 622,
      "ations": 623,
      "language": 624,
      "train": 625,
      "ers": 626,
      "val": 627,
      "ine": 628,
      "token": 629,
      "gra": 630,
      "am": 631,
      "201": 632,
      "man": 633,
      "00": 634,
      "Fig": 635,
      "ci": 636,
      "wo": 637,
      "),": 638,
      "sion": 639,
      "whi": 640,
      "sing": 641,
      "end": 642,
      "str": 643,
      "ctor": 644,
      "ay": 645,
      "present": 646,
      "ight": 647,
      "int": 648,
      "low": 649,
      "ally": 650,
      "examp": 651,
      "log": 652,
      "abil": 653,
      "gen": 654,
      "ER": 655,
      "ks": 656,
      "ph": 657,
      "which": 658,
      "represent": 659,
      "Th": 660,
      "fi": 661,
      "clas": 662,
      "ated": 663,
      "have": 664,
      "ge": 665,
      "We": 666,
      "comput": 667,
      "probabil": 668,
      "ta": 669,
      "valu": 670,
      "bed": 671,
      "ty": 672,
      "vector": 673,
      "not": 674,
      "sent": 675,
      "input": 676,
      "set": 677,
      "ant": 678,
      "ard": 679,
      "mm": 680,
      "ech": 681,
      "models": 682,
      "est": 683,
      "ention": 684,
      "fic": 685,
      "Ch": 686,
      "no": 687,
      "fin": 688,
      "trans": 689,
      "oo": 690,
      "gener": 691,
      "example": 692,
      "gn": 693,
      "gor": 694,
      "wh": 695,
      "iv": 696,
      "id": 697,
      "ill": 698,
      "ms": 699,
      "oc": 700,
      "two": 701,
      "200": 702,
      "les": 703,
      "sequ": 704,
      "lay": 705,
      "training": 706,
      "our": 707,
      "bedding": 708,
      "dat": 709,
      "rel": 710,
      "coder": 711,
      "base": 712,
      "act": 713,
      "call": 714,
      "used": 715,
      "ug": 716,
      "ss": 717,
      "ference": 718,
      "ning": 719,
      "output": 720,
      "other": 721,
      "cy": 722,
      "some": 723,
      "ust": 724,
      "stem": 725,
      "ary": 726,
      "..": 727,
      "des": 728,
      "embedding": 729,
      "ses": 730,
      "tas": 731,
      "gorith": 732,
      "show": 733,
      "ame": 734,
      "min": 735,
      "ish": 736,
      "ural": 737,
      "ument": 738,
      "10": 739,
      "bet": 740,
      "TI": 741,
      "its": 742,
      "up": 743,
      "more": 744,
      "system": 745,
      "algorith": 746,
      "speech": 747,
      "ree": 748,
      "pa": 749,
      "sed": 750,
      "based": 751,
      "199": 752,
      "probability": 753,
      "ative": 754,
      "En": 755,
      "ugh": 756,
      "tho": 757,
      "Re": 758,
      "ds": 759,
      "context": 760,
      "dif": 761,
      "For": 762,
      "has": 763,
      "these": 764,
      "ties": 765,
      "ev": 766,
      "istic": 767,
      "ack": 768,
      "cur": 769,
      "lear": 770,
      "bel": 771,
      "irst": 772,
      "core": 773,
      "ste": 774,
      "sequence": 775,
      "feat": 776,
      "im": 777,
      "Figure": 778,
      "ures": 779,
      "mat": 780,
      "ency": 781,
      "ect": 782,
      "ber": 783,
      "ution": 784,
      "uld": 785,
      "oun": 786,
      "classi": 787,
      "imp": 788,
      "but": 789,
      "ari": 790,
      "ous": 791,
      "also": 792,
      "unction": 793,
      "12": 794,
      "ON": 795,
      "fol": 796,
      "king": 797,
      "tri": 798,
      "Co": 799,
      "arch": 800,
      "ced": 801,
      "ences": 802,
      "ical": 803,
      "tim": 804,
      "op": 805,
      "over": 806,
      "app": 807,
      "corp": 808,
      "ance": 809,
      "11": 810,
      "net": 811,
      "ong": 812,
      "oft": 813,
      "using": 814,
      "ful": 815,
      "now": 816,
      "ween": 817,
      "stru": 818,
      "ting": 819,
      "label": 820,
      "sis": 821,
      "cri": 822,
      "between": 823,
      "was": 824,
      "layer": 825,
      "23": 826,
      "arg": 827,
      "work": 828,
      "first": 829,
      "ser": 830,
      "then": 831,
      "tokens": 832,
      "mean": 833,
      "follow": 834,
      "able": 835,
      "time": 836,
      "cour": 837,
      "AC": 838,
      "lex": 839,
      "sentence": 840,
      "An": 841,
      "att": 842,
      "IN": 843,
      "than": 844,
      "formation": 845,
      "requ": 846,
      "cre": 847,
      "sition": 848,
      "function": 849,
      "way": 850,
      "aliz": 851,
      "ular": 852,
      "rect": 853,
      "ating": 854,
      "ca": 855,
      "tag": 856,
      "course": 857,
      "lic": 858,
      "lish": 859,
      "into": 860,
      "13": 861,
      "red": 862,
      "max": 863,
      "This": 864,
      "algorithm": 865,
      "apter": 866,
      "15": 867,
      "ition": 868,
      "will": 869,
      "ages": 870,
      "14": 871,
      "pend": 872,
      "EN": 873,
      "sign": 874,
      "17": 875,
      "au": 876,
      "reg": 877,
      "ling": 878,
      "num": 879,
      "ort": 880,
      "sp": 881,
      "rodu": 882,
      "ue": 883,
      "called": 884,
      "sub": 885,
      "PT": 886,
      "ion": 887,
      "AN": 888,
      "Un": 889,
      "simp": 890,
      "if": 891,
      "entity": 892,
      "task": 893,
      "OR": 894,
      "ward": 895,
      "Eng": 896,
      "doc": 897,
      "lar": 898,
      "information": 899,
      "ear": 900,
      "any": 901,
      "here": 902,
      "den": 903,
      "introdu": 904,
      "giv": 905,
      "):": 906,
      "comm": 907,
      "data": 908,
      "ates": 909,
      "very": 910,
      "clu": 911,
      "mul": 912,
      "English": 913,
      "bo": 914,
      "mil": 915,
      "produ": 916,
      "document": 917,
      "high": 918,
      "differen": 919,
      "only": 920,
      "they": 921,
      "HA": 922,
      "el": 923,
      "fer": 924,
      "most": 925,
      "corpus": 926,
      "ension": 927,
      "ist": 928,
      "ble": 929,
      "ak": 930,
      "ob": 931,
      "ind": 932,
      "ques": 933,
      "how": 934,
      "mention": 935,
      "tern": 936,
      "matic": 937,
      "PTER": 938,
      "HAPTER": 939,
      "depend": 940,
      "head": 941,
      "embeddings": 942,
      "samp": 943,
      "NN": 944,
      "appro": 945,
      "24": 946,
      "know": 947,
      "verb": 948,
      "16": 949,
      "inclu": 950,
      "18": 951,
      "rough": 952,
      "ents": 953,
      "Con": 954,
      "test": 955,
      "seman": 956,
      "coun": 957,
      "neural": 958,
      "eng": 959,
      "ves": 960,
      "bi": 961,
      "ual": 962,
      "sentences": 963,
      "need": 964,
      "features": 965,
      "ST": 966,
      "om": 967,
      "semantic": 968,
      "back": 969,
      "see": 970,
      "expres": 971,
      "new": 972,
      "cal": 973,
      "pr": 974,
      "25": 975,
      "pos": 976,
      "relations": 977,
      "21": 978,
      "gram": 979,
      "about": 980,
      "number": 981,
      "single": 982,
      "pas": 983,
      "tions": 984,
      "vers": 985,
      "discourse": 986,
      "Mo": 987,
      "NL": 988,
      "sti": 989,
      "multi": 990,
      "AR": 991,
      "non": 992,
      "loss": 993,
      "cent": 994,
      "their": 995,
      "ision": 996,
      "dim": 997,
      "struct": 998,
      "attention": 999,
      "different": 1000,
      "big": 1001,
      "fl": 1002,
      "ou": 1003,
      "wi": 1004,
      "transl": 1005,
      "char": 1006,
      "vari": 1007,
      "encoder": 1008,
      "exp": 1009,
      "proces": 1010,
      "AL": 1011,
      "code": 1012,
      "many": 1013,
      "af": 1014,
      "line": 1015,
      "meaning": 1016,
      "Se": 1017,
      "mb": 1018,
      "dimension": 1019,
      "large": 1020,
      "22": 1021,
      "ite": 1022,
      "simil": 1023,
      "inter": 1024,
      "speci": 1025,
      "learning": 1026,
      "neg": 1027,
      "rent": 1028,
      "such": 1029,
      "languages": 1030,
      "cause": 1031,
      "TION": 1032,
      "just": 1033,
      "son": 1034,
      "cogn": 1035,
      "stand": 1036,
      "classifi": 1037,
      "given": 1038,
      "similar": 1039,
      "tur": 1040,
      "through": 1041,
      "frequ": 1042,
      "ain": 1043,
      "orm": 1044,
      "decoder": 1045,
      "ef": 1046,
      "wer": 1047,
      "art": 1048,
      "ross": 1049,
      "partic": 1050,
      "shows": 1051,
      "ign": 1052,
      "same": 1053,
      "ational": 1054,
      "ACL": 1055,
      "charact": 1056,
      "wa": 1057,
      "dition": 1058,
      "following": 1059,
      "ck": 1060,
      "extra": 1061,
      "ization": 1062,
      "pri": 1063,
      "gramm": 1064,
      "weight": 1065,
      "AS": 1066,
      "ject": 1067,
      "lin": 1068,
      "sum": 1069,
      "compute": 1070,
      "times": 1071,
      "temp": 1072,
      "next": 1073,
      "ator": 1074,
      "resul": 1075,
      "Pro": 1076,
      "where": 1077,
      "part": 1078,
      "Chapter": 1079,
      "ING": 1080,
      "there": 1081,
      "super": 1082,
      "works": 1083,
      "fication": 1084,
      "NP": 1085,
      "To": 1086,
      "ince": 1087,
      "state": 1088,
      "transform": 1089,
      "turn": 1090,
      "So": 1091,
      "ast": 1092,
      "vectors": 1093,
      "approach": 1094,
      "uistic": 1095,
      "ram": 1096,
      "correct": 1097,
      "when": 1098,
      "...": 1099,
      "pon": 1100,
      "metho": 1101,
      "value": 1102,
      "them": 1103,
      "sa": 1104,
      "sk": 1105,
      "sen": 1106,
      "score": 1107,
      "vo": 1108,
      "voc": 1109,
      "ark": 1110,
      "syn": 1111,
      "ies": 1112,
      "nam": 1113,
      "trained": 1114,
      "NLP": 1115,
      "He": 1116,
      "dic": 1117,
      "ities": 1118,
      "led": 1119,
      "proble": 1120,
      "pair": 1121,
      "EC": 1122,
      "systems": 1123,
      "EM": 1124,
      "hum": 1125,
      "lement": 1126,
      "It": 1127,
      "Wh": 1128,
      "would": 1129,
      "evalu": 1130,
      "position": 1131,
      "ctions": 1132,
      "possi": 1133,
      "stit": 1134,
      "EL": 1135,
      "case": 1136,
      "cision": 1137,
      "dden": 1138,
      "search": 1139,
      "assign": 1140,
      "tasks": 1141,
      "198": 1142,
      "often": 1143,
      "ft": 1144,
      "rix": 1145,
      "descri": 1146,
      "ank": 1147,
      "hidden": 1148,
      "representation": 1149,
      "Ex": 1150,
      "respon": 1151,
      "rence": 1152,
      "ood": 1153,
      "row": 1154,
      "tin": 1155,
      "ound": 1156,
      "trib": 1157,
      "000": 1158,
      "network": 1159,
      "soft": 1160,
      "ings": 1161,
      "col": 1162,
      "matrix": 1163,
      "norm": 1164,
      "recogn": 1165,
      "und": 1166,
      "occur": 1167,
      "tribution": 1168,
      "ctive": 1169,
      "ia": 1170,
      "mor": 1171,
      "aly": 1172,
      "defin": 1173,
      "cep": 1174,
      "old": 1175,
      "step": 1176,
      "expression": 1177,
      "senti": 1178,
      "197": 1179,
      "answer": 1180,
      "values": 1181,
      "itect": 1182,
      "ook": 1183,
      "Wor": 1184,
      "soci": 1185,
      "negative": 1186,
      "38": 1187,
      "cohe": 1188,
      "ights": 1189,
      "datase": 1190,
      "ew": 1191,
      "fo": 1192,
      "let": 1193,
      "were": 1194,
      "cond": 1195,
      "parsing": 1196,
      "particular": 1197,
      "ip": 1198,
      "mer": 1199,
      "current": 1200,
      "fa": 1201,
      "ters": 1202,
      "dy": 1203,
      "sitive": 1204,
      "hel": 1205,
      "possible": 1206,
      "LM": 1207,
      "hor": 1208,
      "ie": 1209,
      "cted": 1210,
      "point": 1211,
      "tain": 1212,
      "common": 1213,
      "stead": 1214,
      "tical": 1215,
      "what": 1216,
      "gre": 1217,
      "get": 1218,
      "well": 1219,
      "De": 1220,
      "og": 1221,
      "rop": 1222,
      "196": 1223,
      "architect": 1224,
      "regres": 1225,
      "structure": 1226,
      "Langu": 1227,
      "kes": 1228,
      "vised": 1229,
      "ving": 1230,
      "coding": 1231,
      "phra": 1232,
      "fici": 1233,
      "translation": 1234,
      "perform": 1235,
      "feature": 1236,
      "both": 1237,
      "40": 1238,
      "ŷ": 1239,
      "abul": 1240,
      "class": 1241,
      "networks": 1242,
      "introduce": 1243,
      "bu": 1244,
      "ze": 1245,
      "read": 1246,
      "coreference": 1247,
      "ess": 1248,
      "grammar": 1249,
      "human": 1250,
      "go": 1251,
      "je": 1252,
      "zer": 1253,
      "learn": 1254,
      "transformer": 1255,
      "],": 1256,
      "make": 1257,
      "tric": 1258,
      "distribution": 1259,
      "question": 1260,
      "classifier": 1261,
      "top": 1262,
      "vocabul": 1263,
      "sentiment": 1264,
      "tree": 1265,
      "second": 1266,
      "chine": 1267,
      "parse": 1268,
      "parame": 1269,
      "olution": 1270,
      "PE": 1271,
      "examples": 1272,
      "Comp": 1273,
      "might": 1274,
      "stra": 1275,
      "match": 1276,
      "tagg": 1277,
      "St": 1278,
      "been": 1279,
      "main": 1280,
      "probabilities": 1281,
      "noun": 1282,
      "RE": 1283,
      "RNN": 1284,
      "predi": 1285,
      "vocabulary": 1286,
      "relation": 1287,
      "Language": 1288,
      "who": 1289,
      "AND": 1290,
      "33": 1291,
      "Li": 1292,
      "Not": 1293,
      "since": 1294,
      "uch": 1295,
      "Tr": 1296,
      "want": 1297,
      "rame": 1298,
      "meas": 1299,
      "useful": 1300,
      "graph": 1301,
      "26": 1302,
      "CE": 1303,
      "wn": 1304,
      "because": 1305,
      "hy": 1306,
      "ov": 1307,
      "cho": 1308,
      "add": 1309,
      "vious": 1310,
      "ERT": 1311,
      "softmax": 1312,
      "As": 1313,
      "ati": 1314,
      "book": 1315,
      "ory": 1316,
      "role": 1317,
      "forward": 1318,
      "import": 1319,
      "simple": 1320,
      "algorithms": 1321,
      "argument": 1322,
      "wave": 1323,
      "Ar": 1324,
      "long": 1325,
      "weights": 1326,
      "multip": 1327,
      "metric": 1328,
      "promp": 1329,
      "machine": 1330,
      "xi": 1331,
      "analy": 1332,
      "iter": 1333,
      "pace": 1334,
      "Uni": 1335,
      "ength": 1336,
      "classification": 1337,
      "BERT": 1338,
      "sm": 1339,
      "sider": 1340,
      "positive": 1341,
      "dependency": 1342,
      "frequency": 1343,
      "Eq": 1344,
      "ide": 1345,
      "length": 1346,
      "sel": 1347,
      "lection": 1348,
      "supervised": 1349,
      "err": 1350,
      "attern": 1351,
      "vel": 1352,
      "does": 1353,
      "flight": 1354,
      "tal": 1355,
      "dete": 1356,
      "span": 1357,
      "icon": 1358,
      "ress": 1359,
      "cross": 1360,
      "ru": 1361,
      "ansition": 1362,
      "important": 1363,
      "labeled": 1364,
      "OD": 1365,
      "Sch": 1366,
      "ura": 1367,
      "atural": 1368,
      "could": 1369,
      "term": 1370,
      "2016": 1371,
      "processing": 1372,
      "recognition": 1373,
      "help": 1374,
      "2017": 1375,
      "bigu": 1376,
      "coherence": 1377,
      "small": 1378,
      "ery": 1379,
      "cting": 1380,
      "pect": 1381,
      "entities": 1382,
      "shown": 1383,
      "imum": 1384,
      "AG": 1385,
      "clo": 1386,
      "don": 1387,
      "hand": 1388,
      "ik": 1389,
      "reference": 1390,
      "chapter": 1391,
      "Thus": 1392,
      "pron": 1393,
      "ropy": 1394,
      "50": 1395,
      "right": 1396,
      "you": 1397,
      "ality": 1398,
      "associ": 1399,
      "uning": 1400,
      "correspon": 1401,
      "phone": 1402,
      "But": 1403,
      "pla": 1404,
      "gradi": 1405,
      "pass": 1406,
      "2020": 1407,
      "direct": 1408,
      "previous": 1409,
      "fix": 1410,
      "MM": 1411,
      "gro": 1412,
      "thing": 1413,
      "three": 1414,
      "sour": 1415,
      "generate": 1416,
      "ambigu": 1417,
      "minal": 1418,
      "cti": 1419,
      "ive": 1420,
      "ved": 1421,
      "refer": 1422,
      "order": 1423,
      "standard": 1424,
      "Ne": 1425,
      "fy": 1426,
      "space": 1427,
      "aphor": 1428,
      "rid": 1429,
      "ways": 1430,
      "Comput": 1431,
      "pattern": 1432,
      "ask": 1433,
      "means": 1434,
      "igin": 1435,
      "entire": 1436,
      "count": 1437,
      "Trans": 1438,
      "cap": 1439,
      "fact": 1440,
      "scal": 1441,
      "wr": 1442,
      "constit": 1443,
      "transition": 1444,
      "dist": 1445,
      "Let": 1446,
      "rand": 1447,
      "ub": 1448,
      "annot": 1449,
      "regression": 1450,
      "align": 1451,
      "2019": 1452,
      "crip": 1453,
      "fore": 1454,
      "instead": 1455,
      "thesis": 1456,
      "architecture": 1457,
      "cus": 1458,
      "gment": 1459,
      "iti": 1460,
      "predic": 1461,
      "shap": 1462,
      "ED": 1463,
      "IC": 1464,
      "com": 1465,
      "loo": 1466,
      "view": 1467,
      "phrase": 1468,
      "element": 1469,
      "frame": 1470,
      "lat": 1471,
      "2018": 1472,
      "representations": 1473,
      "ENT": 1474,
      "39": 1475,
      "io": 1476,
      "off": 1477,
      "sive": 1478,
      "contain": 1479,
      "speak": 1480,
      "classes": 1481,
      "take": 1482,
      "auto": 1483,
      "including": 1484,
      "character": 1485,
      "ditional": 1486,
      "anti": 1487,
      "chang": 1488,
      "uses": 1489,
      "clust": 1490,
      "even": 1491,
      "documents": 1492,
      "self": 1493,
      "Al": 1494,
      "Ro": 1495,
      "pp": 1496,
      "entropy": 1497,
      "unit": 1498,
      "likely": 1499,
      "final": 1500,
      "equ": 1501,
      "thus": 1502,
      "choo": 1503,
      "raw": 1504,
      "proper": 1505,
      "less": 1506,
      "sampling": 1507,
      "36": 1508,
      "ho": 1509,
      "mon": 1510,
      "ven": 1511,
      "modeling": 1512,
      "28": 1513,
      "IT": 1514,
      "wel": 1515,
      "uring": 1516,
      "string": 1517,
      "computation": 1518,
      "lexicon": 1519,
      "problem": 1520,
      "buil": 1521,
      "random": 1522,
      "LE": 1523,
      "much": 1524,
      "ran": 1525,
      "origin": 1526,
      "itch": 1527,
      "being": 1528,
      "arget": 1529,
      "ledge": 1530,
      "gradient": 1531,
      "ric": 1532,
      "uc": 1533,
      "These": 1534,
      "query": 1535,
      "zero": 1536,
      "analysis": 1537,
      "pronoun": 1538,
      "constitu": 1539,
      "ht": 1540,
      "target": 1541,
      "retri": 1542,
      "lied": 1543,
      "own": 1544,
      "deriv": 1545,
      "shape": 1546,
      "VP": 1547,
      "ering": 1548,
      "consis": 1549,
      "computing": 1550,
      "applic": 1551,
      "alized": 1552,
      "55": 1553,
      "If": 1554,
      "TR": 1555,
      "sto": 1556,
      "x1": 1557,
      "under": 1558,
      "related": 1559,
      "product": 1560,
      "similarity": 1561,
      "27": 1562,
      "ATION": 1563,
      "ually": 1564,
      "oral": 1565,
      "velo": 1566,
      "may": 1567,
      "dual": 1568,
      "while": 1569,
      "logistic": 1570,
      "though": 1571,
      "regular": 1572,
      "linguistic": 1573,
      "methods": 1574,
      "expressions": 1575,
      "rest": 1576,
      "There": 1577,
      "tics": 1578,
      "layers": 1579,
      "alog": 1580,
      "version": 1581,
      "computed": 1582,
      "prior": 1583,
      "30": 1584,
      "Be": 1585,
      "Jo": 1586,
      "].": 1587,
      "hn": 1588,
      "ove": 1589,
      "oper": 1590,
      "ints": 1591,
      "start": 1592,
      "corpor": 1593,
      "characters": 1594,
      "On": 1595,
      "w1": 1596,
      "cos": 1597,
      "dio": 1598,
      "Model": 1599,
      "Le": 1600,
      "aps": 1601,
      "spect": 1602,
      "higher": 1603,
      "after": 1604,
      "error": 1605,
      "MT": 1606,
      "One": 1607,
      "vation": 1608,
      "rele": 1609,
      "precision": 1610,
      "licit": 1611,
      "sample": 1612,
      "Word": 1613,
      "tac": 1614,
      "vant": 1615,
      "itu": 1616,
      "dire": 1617,
      "fied": 1618,
      "event": 1619,
      "velop": 1620,
      "37": 1621,
      "PP": 1622,
      "Spe": 1623,
      "ded": 1624,
      "day": 1625,
      "eval": 1626,
      "separ": 1627,
      "divi": 1628,
      "logy": 1629,
      "generally": 1630,
      "mentions": 1631,
      "knowledge": 1632,
      "pairs": 1633,
      "Univers": 1634,
      "idea": 1635,
      "source": 1636,
      "Ling": 1637,
      "aver": 1638,
      "natural": 1639,
      "ante": 1640,
      "feed": 1641,
      "typ": 1642,
      "sequences": 1643,
      "linear": 1644,
      "dataset": 1645,
      "tactic": 1646,
      "allow": 1647,
      "find": 1648,
      "introduced": 1649,
      "tagging": 1650,
      "LLM": 1651,
      "mark": 1652,
      "sco": 1653,
      "tre": 1654,
      "edia": 1655,
      "loc": 1656,
      "sol": 1657,
      "ize": 1658,
      "Section": 1659,
      "specific": 1660,
      "ficient": 1661,
      "parameters": 1662,
      "57": 1663,
      "Ho": 1664,
      "emp": 1665,
      "kin": 1666,
      "kind": 1667,
      "ner": 1668,
      "left": 1669,
      "beg": 1670,
      "2013": 1671,
      "mbol": 1672,
      "vowel": 1673,
      "evaluation": 1674,
      "predict": 1675,
      "measure": 1676,
      "IS": 1677,
      "ining": 1678,
      "anaphor": 1679,
      "stu": 1680,
      "those": 1681,
      "indow": 1682,
      "29": 1683,
      "47": 1684,
      "CT": 1685,
      "Par": 1686,
      "best": 1687,
      "ower": 1688,
      "compon": 1689,
      "intu": 1690,
      "alization": 1691,
      "obser": 1692,
      "AT": 1693,
      "Fin": 1694,
      "ice": 1695,
      "pl": 1696,
      "ron": 1697,
      "ants": 1698,
      "via": 1699,
      "EMNLP": 1700,
      "scores": 1701,
      "bit": 1702,
      "ep": 1703,
      "fig": 1704,
      "shi": 1705,
      "recall": 1706,
      "ens": 1707,
      "roles": 1708,
      "discus": 1709,
      "struction": 1710,
      "sky": 1711,
      "named": 1712,
      "corresponding": 1713,
      "Sy": 1714,
      "Sem": 1715,
      "Zh": 1716,
      "air": 1717,
      "level": 1718,
      "comb": 1719,
      "again": 1720,
      "ules": 1721,
      "requi": 1722,
      "alize": 1723,
      "method": 1724,
      "performance": 1725,
      "alignment": 1726,
      "direction": 1727,
      "Linguistic": 1728,
      "ME": 1729,
      "had": 1730,
      "sch": 1731,
      "return": 1732,
      "stati": 1733,
      "At": 1734,
      "ton": 1735,
      "window": 1736,
      "yi": 1737,
      "estim": 1738,
      "stack": 1739,
      "develop": 1740,
      "ited": 1741,
      "resolution": 1742,
      "contin": 1743,
      "fect": 1744,
      "2014": 1745,
      "That": 1746,
      "questions": 1747,
      "counts": 1748,
      "bias": 1749,
      "Dis": 1750,
      "ES": 1751,
      "OS": 1752,
      "incre": 1753,
      "another": 1754,
      "sets": 1755,
      "ason": 1756,
      "convers": 1757,
      "above": 1758,
      "symbol": 1759,
      "include": 1760,
      "distance": 1761,
      "original": 1762,
      "anteced": 1763,
      "Me": 1764,
      "av": 1765,
      "run": 1766,
      "rate": 1767,
      "better": 1768,
      "labeling": 1769,
      "lexity": 1770,
      "signal": 1771,
      "defined": 1772,
      "statis": 1773,
      "Mar": 1774,
      "No": 1775,
      "cing": 1776,
      "ker": 1777,
      "whe": 1778,
      "dern": 1779,
      "various": 1780,
      "summ": 1781,
      "waveform": 1782,
      "intuition": 1783,
      "tend": 1784,
      "ane": 1785,
      "true": 1786,
      "outputs": 1787,
      "AM": 1788,
      "LS": 1789,
      "Pre": 1790,
      "VB": 1791,
      "ould": 1792,
      "sur": 1793,
      "ature": 1794,
      "nel": 1795,
      "...,": 1796,
      "resulting": 1797,
      "Amer": 1798,
      "Gra": 1799,
      "give": 1800,
      "mi": 1801,
      "ry": 1802,
      "say": 1803,
      "inst": 1804,
      "root": 1805,
      "itt": 1806,
      "appe": 1807,
      "quanti": 1808,
      "tokenization": 1809,
      "represented": 1810,
      "dependent": 1811,
      "process": 1812,
      "temporal": 1813,
      "hypo": 1814,
      "feedforward": 1815,
      "Americ": 1816,
      "Hz": 1817,
      "Press": 1818,
      "every": 1819,
      "initi": 1820,
      "consider": 1821,
      "person": 1822,
      "matical": 1823,
      "saw": 1824,
      "speaker": 1825,
      "begin": 1826,
      "44": 1827,
      "AB": 1828,
      "Net": 1829,
      "side": 1830,
      "ically": 1831,
      "should": 1832,
      "2005": 1833,
      "events": 1834,
      "And": 1835,
      "early": 1836,
      "produce": 1837,
      "sense": 1838,
      "syntactic": 1839,
      "Here": 1840,
      "whether": 1841,
      "har": 1842,
      "inte": 1843,
      "orical": 1844,
      "cell": 1845,
      "lot": 1846,
      "extraction": 1847,
      "rule": 1848,
      "48": 1849,
      "FOR": 1850,
      "Mc": 1851,
      "ai": 1852,
      "list": 1853,
      "section": 1854,
      "rather": 1855,
      "size": 1856,
      "units": 1857,
      "2012": 1858,
      "result": 1859,
      "problems": 1860,
      "University": 1861,
      "cer": 1862,
      "ni": 1863,
      "ness": 1864,
      "rules": 1865,
      "2015": 1866,
      "logical": 1867,
      "TIC": 1868,
      "American": 1869,
      "45": 1870,
      "Bi": 1871,
      "FT": 1872,
      "bas": 1873,
      "plexity": 1874,
      "reason": 1875,
      "chain": 1876,
      "tech": 1877,
      "fiel": 1878,
      "cept": 1879,
      "Speech": 1880,
      "cous": 1881,
      "conv": 1882,
      "What": 1883,
      "corpora": 1884,
      "))": 1885,
      "BPE": 1886,
      "CO": 1887,
      "ei": 1888,
      "fine": 1889,
      "igram": 1890,
      "provi": 1891,
      "Chen": 1892,
      "impro": 1893,
      "ators": 1894,
      "datasets": 1895,
      "prompt": 1896,
      "cosine": 1897,
      "appear": 1898,
      "UR": 1899,
      "cat": 1900,
      "she": 1901,
      "vis": 1902,
      "edi": 1903,
      "2000": 1904,
      "ult": 1905,
      "lion": 1906,
      "ategor": 1907,
      "inese": 1908,
      "Chinese": 1909,
      "sometimes": 1910,
      "ople": 1911,
      "applied": 1912,
      "labels": 1913,
      "fil": 1914,
      "foc": 1915,
      "ges": 1916,
      "power": 1917,
      "x2": 1918,
      "seen": 1919,
      "star": 1920,
      "ared": 1921,
      "cess": 1922,
      "2007": 1923,
      "audio": 1924,
      "associated": 1925,
      "spectr": 1926,
      "Wik": 1927,
      "dot": 1928,
      "ones": 1929,
      "umn": 1930,
      "ized": 1931,
      "takes": 1932,
      "notation": 1933,
      "open": 1934,
      "crete": 1935,
      "tags": 1936,
      "jective": 1937,
      "Note": 1938,
      "group": 1939,
      "46": 1940,
      "bor": 1941,
      "fill": 1942,
      "ld": 1943,
      "selection": 1944,
      "chan": 1945,
      "stre": 1946,
      "sig": 1947,
      "wever": 1948,
      "hip": 1949,
      "finet": 1950,
      "earning": 1951,
      "kinds": 1952,
      "PAR": 1953,
      "TS": 1954,
      "ax": 1955,
      "down": 1956,
      "her": 1957,
      "late": 1958,
      "must": 1959,
      "segment": 1960,
      "represents": 1961,
      "verbs": 1962,
      "retrieval": 1963,
      "LST": 1964,
      "VAL": 1965,
      "aw": 1966,
      "rang": 1967,
      "decoding": 1968,
      "modern": 1969,
      "propo": 1970,
      "described": 1971,
      "LSTM": 1972,
      "35": 1973,
      "49": 1974,
      "Ad": 1975,
      "Man": 1976,
      "ail": 1977,
      "ener": 1978,
      "ceed": 1979,
      "move": 1980,
      "before": 1981,
      "user": 1982,
      "lih": 1983,
      "ately": 1984,
      "likelih": 1985,
      "lower": 1986,
      "representing": 1987,
      "generation": 1988,
      "ipedia": 1989,
      "directly": 1990,
      "Af": 1991,
      "By": 1992,
      "ring": 1993,
      "inference": 1994,
      "moo": 1995,
      "comple": 1996,
      "complex": 1997,
      "2003": 1998,
      "goal": 1999,
      "choose": 2000,
      "average": 2001,
      "100": 2002,
      "CR": 2003,
      "Cor": 2004,
      "How": 2005,
      "IR": 2006,
      "ial": 2007,
      "jo": 2008,
      "ler": 2009,
      "my": 2010,
      "vol": 2011,
      "inary": 2012,
      "195": 2013,
      "2011": 2014,
      "detection": 2015,
      "coustic": 2016,
      "Wikipedia": 2017,
      "Each": 2018,
      "Learning": 2019,
      "TH": 2020,
      "pra": 2021,
      "ted": 2022,
      "ata": 2023,
      "too": 2024,
      "web": 2025,
      "people": 2026,
      "perplexity": 2027,
      "domain": 2028,
      "cies": 2029,
      "iven": 2030,
      "Recall": 2031,
      "column": 2032,
      "Notes": 2033,
      "Computational": 2034,
      "60": 2035,
      "FF": 2036,
      "Given": 2037,
      "HMM": 2038,
      "Or": 2039,
      "free": 2040,
      "lation": 2041,
      "encoding": 2042,
      "org": 2043,
      "decision": 2044,
      "que": 2045,
      "key": 2046,
      "across": 2047,
      "ential": 2048,
      "tail": 2049,
      "inputs": 2050,
      "general": 2051,
      "learned": 2052,
      "multiple": 2053,
      "LU": 2054,
      "ah": 2055,
      "bound": 2056,
      "gold": 2057,
      "play": 2058,
      "inde": 2059,
      "lect": 2060,
      "urther": 2061,
      "parser": 2062,
      "tru": 2063,
      "short": 2064,
      "gether": 2065,
      "istorical": 2066,
      "wide": 2067,
      "place": 2068,
      "change": 2069,
      "relevant": 2070,
      "Au": 2071,
      "NA": 2072,
      "name": 2073,
      "por": 2074,
      "ances": 2075,
      "real": 2076,
      "alle": 2077,
      "preference": 2078,
      "strings": 2079,
      "path": 2080,
      "1997": 2081,
      "apply": 2082,
      "spans": 2083,
      "said": 2084,
      "asked": 2085,
      "Seman": 2086,
      "Linguistics": 2087,
      "stream": 2088,
      "cu": 2089,
      "categor": 2090,
      "las": 2091,
      "phe": 2092,
      "thin": 2093,
      "indu": 2094,
      "enn": 2095,
      "together": 2096,
      "assu": 2097,
      "lock": 2098,
      "texts": 2099,
      "ments": 2100,
      "indic": 2101,
      "known": 2102,
      "relationship": 2103,
      "flu": 2104,
      "Some": 2105,
      "increase": 2106,
      "antecedent": 2107,
      "likelihood": 2108,
      "TO": 2109,
      "Ti": 2110,
      "dig": 2111,
      "repe": 2112,
      "detail": 2113,
      "utter": 2114,
      "ability": 2115,
      "object": 2116,
      "grammatical": 2117,
      "passed": 2118,
      "dimensions": 2119,
      "applications": 2120,
      "study": 2121,
      "EE": 2122,
      "Evalu": 2123,
      "car": 2124,
      "good": 2125,
      "od": 2126,
      "altern": 2127,
      "states": 2128,
      "ute": 2129,
      "cont": 2130,
      "conne": 2131,
      "simpli": 2132,
      "earli": 2133,
      "special": 2134,
      "standing": 2135,
      "namic": 2136,
      "Arg": 2137,
      "Col": 2138,
      "Di": 2139,
      "IG": 2140,
      "Ph": 2141,
      "Tra": 2142,
      "UN": 2143,
      "actions": 2144,
      "emo": 2145,
      "last": 2146,
      "ref": 2147,
      "ali": 2148,
      "seem": 2149,
      "artic": 2150,
      "made": 2151,
      "discrete": 2152,
      "design": 2153,
      "maximum": 2154,
      "heads": 2155,
      "capt": 2156,
      "continu": 2157,
      "field": 2158,
      "PER": 2159,
      "acoustic": 2160,
      "oi": 2161,
      "port": 2162,
      "ud": 2163,
      "edit": 2164,
      "termin": 2165,
      "2008": 2166,
      "difference": 2167,
      "subject": 2168,
      "wise": 2169,
      "Po": 2170,
      "Whi": 2171,
      "bra": 2172,
      "four": 2173,
      "atch": 2174,
      "ety": 2175,
      "points": 2176,
      "showing": 2177,
      "ENCE": 2178,
      "ECH": 2179,
      "morphe": 2180,
      "answering": 2181,
      "PEECH": 2182,
      "doesn": 2183,
      "elements": 2184,
      "automatic": 2185,
      "alogue": 2186,
      "types": 2187,
      "either": 2188,
      "AA": 2189,
      "Bank": 2190,
      "Noun": 2191,
      "Ver": 2192,
      "binary": 2193,
      "gu": 2194,
      "pi": 2195,
      "y1": 2196,
      "come": 2197,
      "suf": 2198,
      "describe": 2199,
      "ODEL": 2200,
      "statistical": 2201,
      "Car": 2202,
      "La": 2203,
      "RA": 2204,
      "Su": 2205,
      "UC": 2206,
      "ger": 2207,
      "xx": 2208,
      "your": 2209,
      "encies": 2210,
      "terms": 2211,
      "type": 2212,
      "implement": 2213,
      "optim": 2214,
      "follows": 2215,
      "create": 2216,
      "simply": 2217,
      "gives": 2218,
      "directional": 2219,
      "hypothesis": 2220,
      "43": 2221,
      "99": 2222,
      "DT": 2223,
      "Jura": 2224,
      "RO": 2225,
      "cla": 2226,
      "fsky": 2227,
      "pen": 2228,
      "tuning": 2229,
      "year": 2230,
      "issu": 2231,
      "aspect": 2232,
      "cost": 2233,
      "moid": 2234,
      "uni": 2235,
      "2021": 2236,
      "without": 2237,
      "fully": 2238,
      "functions": 2239,
      "commonly": 2240,
      "bigram": 2241,
      "link": 2242,
      "approaches": 2243,
      "close": 2244,
      "look": 2245,
      "spectrum": 2246,
      "sigmoid": 2247,
      "complete": 2248,
      "Jurafsky": 2249,
      "</": 2250,
      "Bo": 2251,
      "cand": 2252,
      "haps": 2253,
      "light": 2254,
      "smoo": 2255,
      "research": 2256,
      "edy": 2257,
      "lead": 2258,
      "aren": 2259,
      "makes": 2260,
      "grams": 2261,
      "generated": 2262,
      "lexical": 2263,
      "lingual": 2264,
      "ORG": 2265,
      "Consider": 2266,
      "patterns": 2267,
      "cription": 2268,
      "properties": 2269,
      "proposed": 2270,
      "64": 2271,
      "RC": 2272,
      "Sum": 2273,
      "bank": 2274,
      "eat": 2275,
      "ustr": 2276,
      "vision": 2277,
      "tool": 2278,
      "demon": 2279,
      "moun": 2280,
      "mel": 2281,
      "fective": 2282,
      "rich": 2283,
      "post": 2284,
      "parts": 2285,
      "acc": 2286,
      "tell": 2287,
      "computational": 2288,
      "node": 2289,
      "2009": 2290,
      "ugment": 2291,
      "aries": 2292,
      "series": 2293,
      "dimensionality": 2294,
      "frequent": 2295,
      "efficient": 2296,
      "weighted": 2297,
      "ASR": 2298,
      "cluster": 2299,
      "Finally": 2300,
      "ODELS": 2301,
      "AI": 2302,
      "LO": 2303,
      "larg": 2304,
      "nal": 2305,
      "ple": 2306,
      "page": 2307,
      "review": 2308,
      "ale": 2309,
      "ford": 2310,
      "ick": 2311,
      "2022": 2312,
      "pret": 2313,
      "pretrained": 2314,
      "pho": 2315,
      "2004": 2316,
      "contextual": 2317,
      "United": 2318,
      "classifiers": 2319,
      "arguments": 2320,
      "Neural": 2321,
      "dividual": 2322,
      "trees": 2323,
      "observation": 2324,
      "basic": 2325,
      "candid": 2326,
      "SP": 2327,
      "Stru": 2328,
      "Tree": 2329,
      "cle": 2330,
      "draw": 2331,
      "pm": 2332,
      "pan": 2333,
      "tf": 2334,
      "individual": 2335,
      "erci": 2336,
      "toward": 2337,
      "eds": 2338,
      "chr": 2339,
      "ley": 2340,
      "constra": 2341,
      "dialogue": 2342,
      "preced": 2343,
      "gender": 2344,
      "illustr": 2345,
      "2006": 2346,
      "1999": 2347,
      "followed": 2348,
      "Transform": 2349,
      "CTC": 2350,
      "CRF": 2351,
      "demonstr": 2352,
      "GU": 2353,
      "IO": 2354,
      "LT": 2355,
      "MD": 2356,
      "Qu": 2357,
      "amoun": 2358,
      "bre": 2359,
      "dence": 2360,
      "fram": 2361,
      "mis": 2362,
      "ris": 2363,
      "witch": 2364,
      "ined": 2365,
      "referen": 2366,
      "til": 2367,
      "usually": 2368,
      "terminal": 2369,
      "paralle": 2370,
      "sug": 2371,
      "cording": 2372,
      "minimum": 2373,
      "Encoder": 2374,
      "million": 2375,
      "diction": 2376,
      "dynamic": 2377,
      "great": 2378,
      "parameter": 2379,
      "scale": 2380,
      "Discourse": 2381,
      "Hu": 2382,
      "Mark": 2383,
      "Pra": 2384,
      "aj": 2385,
      "dh": 2386,
      "his": 2387,
      "mary": 2388,
      "wt": 2389,
      "arri": 2390,
      "rams": 2391,
      "resour": 2392,
      "pose": 2393,
      "compar": 2394,
      "acti": 2395,
      "Enti": 2396,
      "tribut": 2397,
      "jecti": 2398,
      "metrics": 2399,
      "constituent": 2400,
      "itude": 2401,
      "visu": 2402,
      "Training": 2403,
      "ae": 2404,
      "bil": 2405,
      "mes": 2406,
      "van": 2407,
      "”.": 2408,
      "instruction": 2409,
      "tial": 2410,
      "leg": 2411,
      "exact": 2412,
      "near": 2413,
      "izing": 2414,
      "2002": 2415,
      "grammars": 2416,
      "RNNs": 2417,
      "comes": 2418,
      "contains": 2419,
      "Models": 2420,
      "kernel": 2421,
      "initial": 2422,
      "improve": 2423,
      "Det": 2424,
      "bal": 2425,
      "bers": 2426,
      "fron": 2427,
      "gy": 2428,
      "pie": 2429,
      "redu": 2430,
      "recurrent": 2431,
      "determin": 2432,
      "prop": 2433,
      "ighbor": 2434,
      "2010": 2435,
      "1995": 2436,
      "More": 2437,
      "dimensional": 2438,
      "gramming": 2439,
      "predicate": 2440,
      "pronouns": 2441,
      "John": 2442,
      "vowels": 2443,
      "components": 2444,
      "estimate": 2445,
      "finetuning": 2446,
      "candidate": 2447,
      ".-": 2448,
      "34": 2449,
      "EX": 2450,
      "Historical": 2451,
      "OG": 2452,
      "OT": 2453,
      "Res": 2454,
      "Sh": 2455,
      "found": 2456,
      "further": 2457,
      "happ": 2458,
      "spo": 2459,
      "tup": 2460,
      "ines": 2461,
      "did": 2462,
      "neighbor": 2463,
      "pretraining": 2464,
      "Instead": 2465,
      "idf": 2466,
      "still": 2467,
      "nouns": 2468,
      "ridge": 2469,
      "convolution": 2470,
      "ailable": 2471,
      "organ": 2472,
      "Time": 2473,
      "32": 2474,
      "Lap": 2475,
      "Mul": 2476,
      "RST": 2477,
      "SS": 2478,
      "augment": 2479,
      "ore": 2480,
      "ough": 2481,
      "sure": 2482,
      "tun": 2483,
      "table": 2484,
      "wal": 2485,
      "resi": 2486,
      "enco": 2487,
      "tis": 2488,
      "local": 2489,
      "2023": 2490,
      "ulation": 2491,
      "lies": 2492,
      "sound": 2493,
      "lative": 2494,
      "taking": 2495,
      "ournal": 2496,
      "diffic": 2497,
      "ANS": 2498,
      "When": 2499,
      "longer": 2500,
      "smaller": 2501,
      "AGE": 2502,
      "Nominal": 2503,
      "=\"": 2504,
      "First": 2505,
      "II": 2506,
      "Span": 2507,
      "ba": 2508,
      "mic": 2509,
      "mapp": 2510,
      "pur": 2511,
      "w2": 2512,
      "ors": 2513,
      "lying": 2514,
      "contr": 2515,
      "conditional": 2516,
      "quite": 2517,
      "few": 2518,
      "something": 2519,
      "1990": 2520,
      "1996": 2521,
      "implicit": 2522,
      "ENC": 2523,
      "numbers": 2524,
      "explicit": 2525,
      "greedy": 2526,
      "ready": 2527,
      "fying": 2528,
      "lexicons": 2529,
      "separate": 2530,
      "selectional": 2531,
      "think": 2532,
      "utterance": 2533,
      "Markov": 2534,
      "AD": 2535,
      "HLT": 2536,
      "Now": 2537,
      "PA": 2538,
      "SE": 2539,
      "Ve": 2540,
      "action": 2541,
      "during": 2542,
      "ier": 2543,
      "ired": 2544,
      "os": 2545,
      "’,": 2546,
      "world": 2547,
      "programming": 2548,
      "etch": 2549,
      "law": 2550,
      "perio": 2551,
      "finding": 2552,
      "identi": 2553,
      "descent": 2554,
      "ANGU": 2555,
      "results": 2556,
      "phrases": 2557,
      "consists": 2558,
      "Lee": 2559,
      "techni": 2560,
      "caten": 2561,
      "Manning": 2562,
      "capture": 2563,
      "ANGUAGE": 2564,
      ".)": 2565,
      "App": 2566,
      "BM": 2567,
      "Doc": 2568,
      "Journal": 2569,
      "Lex": 2570,
      "ML": 2571,
      "Mach": 2572,
      "Vi": 2573,
      "din": 2574,
      "ific": 2575,
      "tes": 2576,
      "”,": 2577,
      "define": 2578,
      "ital": 2579,
      "wee": 2580,
      "beam": 2581,
      "below": 2582,
      "condition": 2583,
      "formal": 2584,
      "disambigu": 2585,
      "tax": 2586,
      "1993": 2587,
      "includes": 2588,
      "lines": 2589,
      "morpho": 2590,
      "whose": 2591,
      "symbols": 2592,
      "available": 2593,
      "NAACL": 2594,
      "Semantic": 2595,
      "While": 2596,
      "accura": 2597,
      "residual": 2598,
      "CLS": 2599,
      "Ng": 2600,
      "UT": 2601,
      "bl": 2602,
      "far": 2603,
      "imm": 2604,
      "along": 2605,
      "ash": 2606,
      "vec": 2607,
      "conver": 2608,
      "peri": 2609,
      "try": 2610,
      "shop": 2611,
      "having": 2612,
      "Then": 2613,
      "structions": 2614,
      "turns": 2615,
      "sketch": 2616,
      "letters": 2617,
      "regressive": 2618,
      "annotated": 2619,
      "Verb": 2620,
      "Summary": 2621,
      "larger": 2622,
      "contrast": 2623,
      "Ano": 2624,
      "CK": 2625,
      "Ru": 2626,
      "Ste": 2627,
      "Sub": 2628,
      "ban": 2629,
      "wid": 2630,
      "xn": 2631,
      "che": 2632,
      "unigram": 2633,
      "concaten": 2634,
      "usal": 2635,
      "extend": 2636,
      "otstra": 2637,
      "ased": 2638,
      "prefix": 2639,
      "ferences": 2640,
      "full": 2641,
      "meanings": 2642,
      "extract": 2643,
      "architectures": 2644,
      "derivative": 2645,
      "summar": 2646,
      "Auto": 2647,
      "earlier": 2648,
      "Another": 2649,
      "56": 2650,
      "59": 2651,
      "70": 2652,
      "Kle": 2653,
      "SH": 2654,
      "TTS": 2655,
      "dv": 2656,
      "date": 2657,
      "iy": 2658,
      "junction": 2659,
      "masked": 2660,
      "pitch": 2661,
      "situ": 2662,
      "They": 2663,
      "additional": 2664,
      "ases": 2665,
      "ctors": 2666,
      "substit": 2667,
      "semantics": 2668,
      "Token": 2669,
      "assigned": 2670,
      "coherent": 2671,
      "focus": 2672,
      "propag": 2673,
      "2vec": 2674,
      "Ber": 2675,
      "ET": 2676,
      "El": 2677,
      "Hen": 2678,
      "LCE": 2679,
      "US": 2680,
      "VQ": 2681,
      "Xiv": 2682,
      "bro": 2683,
      "block": 2684,
      "came": 2685,
      "map": 2686,
      "rating": 2687,
      "vity": 2688,
      "←↑": 2689,
      "invol": 2690,
      "influ": 2691,
      "anch": 2692,
      "relative": 2693,
      "ense": 2694,
      "already": 2695,
      "ists": 2696,
      "around": 2697,
      "perhaps": 2698,
      "ample": 2699,
      "mental": 2700,
      "izer": 2701,
      "syll": 2702,
      "sycho": 2703,
      "generating": 2704,
      "others": 2705,
      "uston": 2706,
      "minim": 2707,
      "argmax": 2708,
      "supervision": 2709,
      "matches": 2710,
      "iterbi": 2711,
      "fixed": 2712,
      "discuss": 2713,
      "quantiz": 2714,
      "ceedings": 2715,
      "alternative": 2716,
      "accuracy": 2717,
      "75": 2718,
      "All": 2719,
      "Har": 2720,
      "MIT": 2721,
      "Per": 2722,
      "hot": 2723,
      "rank": 2724,
      "sci": 2725,
      "seed": 2726,
      "total": 2727,
      "stage": 2728,
      "deal": 2729,
      "respect": 2730,
      "ets": 2731,
      "verse": 2732,
      "lim": 2733,
      "making": 2734,
      "NLL": 2735,
      "interpret": 2736,
      "ctice": 2737,
      "later": 2738,
      "anaphoric": 2739,
      "component": 2740,
      "discussed": 2741,
      "Zhang": 2742,
      "Do": 2743,
      "Em": 2744,
      "MA": 2745,
      "Ma": 2746,
      "Penn": 2747,
      "You": 2748,
      "bot": 2749,
      "hist": 2750,
      "ily": 2751,
      "sers": 2752,
      "stop": 2753,
      "xt": 2754,
      "ym": 2755,
      "ene": 2756,
      "stri": 2757,
      "iting": 2758,
      "movi": 2759,
      "conf": 2760,
      "Theory": 2761,
      "pot": 2762,
      "according": 2763,
      "ERENCE": 2764,
      "1992": 2765,
      "1994": 2766,
      "CoNLL": 2767,
      "created": 2768,
      "extracted": 2769,
      "linking": 2770,
      "cases": 2771,
      "occurs": 2772,
      "graphy": 2773,
      "application": 2774,
      "operator": 2775,
      "Corp": 2776,
      "details": 2777,
      "Entity": 2778,
      "Machine": 2779,
      "-←↑": 2780,
      "NI": 2781,
      "clear": 2782,
      "gest": 2783,
      "itive": 2784,
      "lun": 2785,
      "tp": 2786,
      "enough": 2787,
      "always": 2788,
      "edge": 2789,
      "mechan": 2790,
      "uration": 2791,
      "ampl": 2792,
      "prefer": 2793,
      "Web": 2794,
      "Proceedings": 2795,
      "correctly": 2796,
      "morning": 2797,
      "looking": 2798,
      "understanding": 2799,
      "However": 2800,
      "figure": 2801,
      "filter": 2802,
      "index": 2803,
      "LOC": 2804,
      "parallel": 2805,
      "Document": 2806,
      "CKY": 2807,
      "width": 2808,
      "31": 2809,
      "58": 2810,
      "CC": 2811,
      "JJ": 2812,
      "Ke": 2813,
      "Sim": 2814,
      "dk": 2815,
      "dent": 2816,
      "eas": 2817,
      "ky": 2818,
      "lates": 2819,
      "tle": 2820,
      "x3": 2821,
      "yp": 2822,
      "independent": 2823,
      "ani": 2824,
      "remo": 2825,
      "theory": 2826,
      "although": 2827,
      "astic": 2828,
      "until": 2829,
      "abuc": 2830,
      "addition": 2831,
      "Information": 2832,
      "1998": 2833,
      "signific": 2834,
      "multilingual": 2835,
      "Head": 2836,
      "collection": 2837,
      "Work": 2838,
      "Liu": 2839,
      "talk": 2840,
      "built": 2841,
      "Because": 2842,
      "LLMs": 2843,
      "sche": 2844,
      "developed": 2845,
      "repeated": 2846,
      "difficult": 2847,
      "abucks": 2848,
      "Clas": 2849,
      "F1": 2850,
      "Fe": 2851,
      "Gener": 2852,
      "Lin": 2853,
      "Log": 2854,
      "NTI": 2855,
      "Ri": 2856,
      "SING": 2857,
      "Text": 2858,
      "Wang": 2859,
      "aur": 2860,
      "done": 2861,
      "glo": 2862,
      "hu": 2863,
      "y2": 2864,
      "als": 2865,
      "cover": 2866,
      "unct": 2867,
      "agent": 2868,
      "ild": 2869,
      "config": 2870,
      "ables": 2871,
      "oling": 2872,
      "suc": 2873,
      "Cho": 2874,
      "2001": 2875,
      "berg": 2876,
      "dense": 2877,
      "NNP": 2878,
      "templates": 2879,
      "names": 2880,
      "positions": 2881,
      "assigns": 2882,
      "assigning": 2883,
      "384": 2884,
      "atives": 2885,
      "ambiguity": 2886,
      "autoregressive": 2887,
      "requires": 2888,
      "itten": 2889,
      "designed": 2890,
      "morphemes": 2891,
      "Multi": 2892,
      "42": 2893,
      "Ag": 2894,
      "IZ": 2895,
      "Sent": 2896,
      "dra": 2897,
      "ging": 2898,
      "mar": 2899,
      "sali": 2900,
      "zi": 2901,
      "reward": 2902,
      "tice": 2903,
      "mous": 2904,
      "project": 2905,
      "stric": 2906,
      "showed": 2907,
      "highest": 2908,
      "vocal": 2909,
      "Exerci": 2910,
      "letter": 2911,
      "Depend": 2912,
      "prompting": 2913,
      "phonetic": 2914,
      "range": 2915,
      "practice": 2916,
      "frames": 2917,
      "Spanish": 2918,
      "period": 2919,
      "Workshop": 2920,
      "90": 2921,
      "Lay": 2922,
      "Other": 2923,
      "RANS": 2924,
      "Since": 2925,
      "care": 2926,
      "fam": 2927,
      "med": 2928,
      "wers": 2929,
      "restric": 2930,
      "ons": 2931,
      "thematic": 2932,
      "ater": 2933,
      "lected": 2934,
      "experi": 2935,
      "mod": 2936,
      "within": 2937,
      "adding": 2938,
      "parsers": 2939,
      "ird": 2940,
      "compare": 2941,
      "Input": 2942,
      "computer": 2943,
      "1991": 2944,
      "atively": 2945,
      "Analy": 2946,
      "maxim": 2947,
      "bootstra": 2948,
      "backward": 2949,
      "ARG": 2950,
      "affective": 2951,
      "effici": 2952,
      "particip": 2953,
      "normal": 2954,
      "ground": 2955,
      "prediction": 2956,
      "build": 2957,
      "ranking": 2958,
      "TRAC": 2959,
      "against": 2960,
      "development": 2961,
      "ediate": 2962,
      "assump": 2963,
      "Evaluation": 2964,
      "emotion": 2965,
      "Struct": 2966,
      "chrF": 2967,
      "Transformer": 2968,
      "activation": 2969,
      "amplitude": 2970,
      "//": 2971,
      "Bar": 2972,
      "BIO": 2973,
      "Cent": 2974,
      "NER": 2975,
      "Natural": 2976,
      "OF": 2977,
      "Viterbi": 2978,
      "cul": 2979,
      "scrip": 2980,
      "vent": 2981,
      "xim": 2982,
      "yes": 2983,
      "ination": 2984,
      "instructions": 2985,
      "lea": 2986,
      "least": 2987,
      "deci": 2988,
      "ics": 2989,
      "ement": 2990,
      "tract": 2991,
      "Inde": 2992,
      "probabilistic": 2993,
      "contexts": 2994,
      "stein": 2995,
      "alizing": 2996,
      "commun": 2997,
      "print": 2998,
      "codec": 2999,
      "template": 3000,
      "steps": 3001,
      "reader": 3002,
      "equation": 3003,
      "constituents": 3004,
      "Parsing": 3005,
      "require": 3006,
      "conversation": 3007,
      "FORM": 3008,
      "amount": 3009,
      "dictionary": 3010,
      "jectives": 3011,
      "IP": 3012,
      "LR": 3013,
      "Lo": 3014,
      "NO": 3015,
      "OK": 3016,
      "Tur": 3017,
      "Tech": 3018,
      "WK": 3019,
      "cas": 3020,
      "food": 3021,
      "ian": 3022,
      "lan": 3023,
      "mid": 3024,
      "ography": 3025,
      "pap": 3026,
      "ral": 3027,
      "sparse": 3028,
      "ume": 3029,
      "uish": 3030,
      "vance": 3031,
      "yy": 3032,
      "”)": 3033,
      "once": 3034,
      "ism": 3035,
      "deep": 3036,
      "exit": 3037,
      "quality": 3038,
      "company": 3039,
      "formally": 3040,
      "answers": 3041,
      "tele": 3042,
      "disting": 3043,
      "distin": 3044,
      "ooks": 3045,
      "matric": 3046,
      "causal": 3047,
      "samples": 3048,
      "bidirectional": 3049,
      "definition": 3050,
      "definite": 3051,
      "green": 3052,
      "however": 3053,
      "building": 3054,
      "consist": 3055,
      "shift": 3056,
      "instance": 3057,
      "beginning": 3058,
      "McC": 3059,
      "seems": 3060,
      "issues": 3061,
      "ENCY": 3062,
      "distinguish": 3063,
      "matrices": 3064,
      "Clar": 3065,
      "MP": 3066,
      "MENT": 3067,
      "XTRAC": 3068,
      "batch": 3069,
      "flow": 3070,
      "ih": 3071,
      "py": 3072,
      "pub": 3073,
      "ras": 3074,
      "ald": 3075,
      "etc": 3076,
      "advant": 3077,
      "accur": 3078,
      "shared": 3079,
      "probable": 3080,
      "transcription": 3081,
      "differences": 3082,
      "synthe": 3083,
      "syntax": 3084,
      "referring": 3085,
      "choosing": 3086,
      "http": 3087,
      "locks": 3088,
      "Syn": 3089,
      "returns": 3090,
      "provide": 3091,
      "channel": 3092,
      "PARSING": 3093,
      "induction": 3094,
      "aspects": 3095,
      "smoothing": 3096,
      "Lapata": 3097,
      "history": 3098,
      "potential": 3099,
      "Air": 3100,
      "Many": 3101,
      "TA": 3102,
      "br": 3103,
      "da": 3104,
      "dan": 3105,
      "qi": 3106,
      "ino": 3107,
      "ins": 3108,
      "online": 3109,
      "ros": 3110,
      "conson": 3111,
      "concept": 3112,
      "word2vec": 3113,
      "rico": 3114,
      "rible": 3115,
      "shot": 3116,
      "mann": 3117,
      "strong": 3118,
      "file": 3119,
      "Char": 3120,
      "acts": 3121,
      "Recogn": 3122,
      "subword": 3123,
      "appropri": 3124,
      "approxim": 3125,
      "roughly": 3126,
      "omial": 3127,
      "structures": 3128,
      "Proces": 3129,
      "EME": 3130,
      "descrip": 3131,
      "rown": 3132,
      "tinomial": 3133,
      "normalized": 3134,
      "social": 3135,
      "measuring": 3136,
      "ArXiv": 3137,
      "spanning": 3138,
      "coming": 3139,
      "latexit": 3140,
      "solution": 3141,
      "instances": 3142,
      "THEME": 3143,
      "widely": 3144,
      "simplified": 3145,
      "Super": 3146,
      "constraints": 3147,
      "XTRACTION": 3148,
      "(“": 3149,
      ");": 3150,
      "41": 3151,
      "80": 3152,
      "Eu": 3153,
      "Frame": 3154,
      "IE": 3155,
      "Jap": 3156,
      "Lar": 3157,
      "Lev": 3158,
      "LING": 3159,
      "Norm": 3160,
      "New": 3161,
      "POS": 3162,
      "URE": 3163,
      "WS": 3164,
      "Wu": 3165,
      "aking": 3166,
      "fit": 3167,
      "ga": 3168,
      "grid": 3169,
      "h1": 3170,
      "hL": 3171,
      "jor": 3172,
      "nical": 3173,
      "ww": 3174,
      "zed": 3175,
      "recent": 3176,
      "endi": 3177,
      "item": 3178,
      "rati": 3179,
      "modi": 3180,
      "lots": 3181,
      "ression": 3182,
      "ago": 3183,
      "2024": 3184,
      "rise": 3185,
      "compo": 3186,
      "cially": 3187,
      "dates": 3188,
      "Reg": 3189,
      "ongue": 3190,
      "variable": 3191,
      "Prop": 3192,
      "senses": 3193,
      "Extra": 3194,
      "Decoder": 3195,
      "predicting": 3196,
      "choice": 3197,
      "added": 3198,
      "ambiguous": 3199,
      "scalar": 3200,
      "clustering": 3201,
      "conversations": 3202,
      "running": 3203,
      "joint": 3204,
      "reviews": 3205,
      "exactly": 3206,
      "techniques": 3207,
      "extended": 3208,
      "Automatic": 3209,
      "global": 3210,
      "Clark": 3211,
      "AU": 3212,
      "Den": 3213,
      "IBM": 3214,
      "Jan": 3215,
      "Ku": 3216,
      "San": 3217,
      "Temp": 3218,
      "Using": 3219,
      "bri": 3220,
      "dri": 3221,
      "ient": 3222,
      "ival": 3223,
      "k1": 3224,
      "mag": 3225,
      "q1": 3226,
      "squ": 3227,
      "slight": 3228,
      "tongue": 3229,
      "yt": 3230,
      "yer": 3231,
      "remain": 3232,
      "espe": 3233,
      "rare": 3234,
      "sic": 3235,
      "meet": 3236,
      "aprico": 3237,
      "adjectives": 3238,
      "percep": 3239,
      "format": 3240,
      "coring": 3241,
      "0000": 3242,
      "stere": 3243,
      "produced": 3244,
      "explo": 3245,
      "codeword": 3246,
      "frequencies": 3247,
      "evaluate": 3248,
      "occurrence": 3249,
      "Unicode": 3250,
      "helpful": 3251,
      "transitions": 3252,
      "store": 3253,
      "regularization": 3254,
      "WordNet": 3255,
      "Att": 3256,
      "axis": 3257,
      "energy": 3258,
      "content": 3259,
      "Label": 3260,
      "convolutional": 3261,
      "disambiguation": 3262,
      "substitution": 3263,
      "anchor": 3264,
      "Embedding": 3265,
      "Sentence": 3266,
      "Exercises": 3267,
      "Layer": 3268,
      "apricot": 3269,
      "01": 3270,
      "62": 3271,
      "://": 3272,
      "Book": 3273,
      "Des": 3274,
      "EP": 3275,
      "EUR": 3276,
      "IEE": 3277,
      "KS": 3278,
      "Min": 3279,
      "RAG": 3280,
      "])": 3281,
      "avo": 3282,
      "hence": 3283,
      "sc": 3284,
      "itself": 3285,
      "vey": 3286,
      "ices": 3287,
      "ung": 3288,
      "love": 3289,
      "ably": 3290,
      "arer": 3291,
      "necess": 3292,
      "adig": 3293,
      "keep": 3294,
      "paradig": 3295,
      "otyp": 3296,
      "ctoria": 3297,
      "taken": 3298,
      "TIN": 3299,
      "ONS": 3300,
      "attach": 3301,
      "ORD": 3302,
      "mentioned": 3303,
      "STR": 3304,
      "variety": 3305,
      "affect": 3306,
      "ASSP": 3307,
      "therefore": 3308,
      "NPs": 3309,
      "synthesis": 3310,
      "humans": 3311,
      "positional": 3312,
      "Words": 3313,
      "matching": 3314,
      "whole": 3315,
      "prompts": 3316,
      "Sche": 3317,
      "facts": 3318,
      "written": 3319,
      "distant": 3320,
      "changes": 3321,
      "harm": 3322,
      "interest": 3323,
      "boundary": 3324,
      "sufficient": 3325,
      "Treebank": 3326,
      "arrived": 3327,
      "spoken": 3328,
      "Victoria": 3329,
      "assumption": 3330,
      "appropriate": 3331,
      "Large": 3332,
      "IEEE": 3333,
      "65": 3334,
      "79": 3335,
      "Brown": 3336,
      "Pal": 3337,
      "RB": 3338,
      "Yu": 3339,
      "bli": 3340,
      "cli": 3341,
      "fund": 3342,
      "gabucks": 3343,
      "hard": 3344,
      "ko": 3345,
      "lest": 3346,
      "mas": 3347,
      "nas": 3348,
      "q4": 3349,
      "uation": 3350,
      "things": 3351,
      "ann": 3352,
      "recon": 3353,
      "tit": 3354,
      "erature": 3355,
      "arc": 3356,
      "arly": 3357,
      "2025": 3358,
      "die": 3359,
      "abstra": 3360,
      "dog": 3361,
      "doing": 3362,
      "logits": 3363,
      "ERS": 3364,
      "finite": 3365,
      "Research": 3366,
      "ONE": 3367,
      "overl": 3368,
      "creating": 3369,
      "END": 3370,
      "simplest": 3371,
      "sampled": 3372,
      "biases": 3373,
      "interpo": 3374,
      "voice": 3375,
      "1986": 3376,
      "cepstr": 3377,
      "1975": 3378,
      "chosen": 3379,
      "passages": 3380,
      "thought": 3381,
      "errors": 3382,
      "Megabucks": 3383,
      "anese": 3384,
      "certain": 3385,
      "Bibli": 3386,
      "assume": 3387,
      "preceding": 3388,
      "neighboring": 3389,
      "encoded": 3390,
      "mapping": 3391,
      "movie": 3392,
      "configuration": 3393,
      "Japanese": 3394,
      "endix": 3395,
      "ratio": 3396,
      "especially": 3397,
      "stereotyp": 3398,
      "Bibliography": 3399,
      "95": 3400,
      "Imp": 3401,
      "MUC": 3402,
      "Next": 3403,
      "Sha": 3404,
      "Sta": 3405,
      "bs": 3406,
      "books": 3407,
      "blocks": 3408,
      "men": 3409,
      "nuc": 3410,
      "punct": 3411,
      "ü": 3412,
      "third": 3413,
      "analog": 3414,
      "reme": 3415,
      "onto": 3416,
      "tier": 3417,
      "ands": 3418,
      "roll": 3419,
      "coll": 3420,
      "pology": 3421,
      "forms": 3422,
      "accent": 3423,
      "pressure": 3424,
      "amb": 3425,
      "among": 3426,
      "enda": 3427,
      "iden": 3428,
      "msky": 3429,
      "actually": 3430,
      "option": 3431,
      "crimin": 3432,
      "sert": 3433,
      "cade": 3434,
      "needs": 3435,
      "transformers": 3436,
      "cepts": 3437,
      "reading": 3438,
      "detecting": 3439,
      "association": 3440,
      "EDU": 3441,
      "clusters": 3442,
      "stored": 3443,
      "allows": 3444,
      "plus": 3445,
      "Zhou": 3446,
      "integ": 3447,
      "starting": 3448,
      "IGH": 3449,
      "illustrates": 3450,
      "suggest": 3451,
      "propagation": 3452,
      "lunch": 3453,
      "success": 3454,
      "Chomsky": 3455,
      "Dependency": 3456,
      "Airlines": 3457,
      "Recognition": 3458,
      "Processing": 3459,
      "97": 3460,
      "Beng": 3461,
      "Data": 3462,
      "Nam": 3463,
      "VENT": 3464,
      "Wino": 3465,
      "aa": 3466,
      "vations": 3467,
      "zing": 3468,
      "replace": 3469,
      "report": 3470,
      "ond": 3471,
      "encode": 3472,
      "inger": 3473,
      "assum": 3474,
      "ites": 3475,
      "uture": 3476,
      "hearer": 3477,
      "weet": 3478,
      "expect": 3479,
      "lov": 3480,
      "agenda": 3481,
      "major": 3482,
      "ney": 3483,
      "percent": 3484,
      "cannot": 3485,
      "Int": 3486,
      "Inter": 3487,
      "Intern": 3488,
      "computes": 3489,
      "Rel": 3490,
      "Under": 3491,
      "ORE": 3492,
      "produces": 3493,
      "aker": 3494,
      "interm": 3495,
      "evaluated": 3496,
      "1968": 3497,
      "RESS": 3498,
      "erry": 3499,
      "referred": 3500,
      "framework": 3501,
      "speakers": 3502,
      "equival": 3503,
      "rican": 3504,
      "restaur": 3505,
      "location": 3506,
      "COLING": 3507,
      "African": 3508,
      "automatically": 3509,
      "frontier": 3510,
      "Simil": 3511,
      "significant": 3512,
      "salient": 3513,
      "accurate": 3514,
      "PropBank": 3515,
      "Attention": 3516,
      "66": 3517,
      "BJ": 3518,
      "Back": 3519,
      "Cha": 3520,
      "Er": 3521,
      "Open": 3522,
      "PR": 3523,
      "RIGH": 3524,
      "SU": 3525,
      "Wal": 3526,
      "With": 3527,
      "ao": 3528,
      "eli": 3529,
      "hold": 3530,
      "mma": 3531,
      "male": 3532,
      "psycho": 3533,
      "tz": 3534,
      "wk": 3535,
      "incorrect": 3536,
      "ensive": 3537,
      "tig": 3538,
      "ories": 3539,
      "select": 3540,
      "codes": 3541,
      "sta": 3542,
      "memor": 3543,
      "urIP": 3544,
      "unds": 3545,
      "unknown": 3546,
      "confi": 3547,
      "conven": 3548,
      "adj": 3549,
      "adap": 3550,
      "hier": 3551,
      "acle": 3552,
      "vidence": 3553,
      "tokenizer": 3554,
      "phy": 3555,
      "actual": 3556,
      "otherwise": 3557,
      "TIME": 3558,
      "bert": 3559,
      "128": 3560,
      "Coreference": 3561,
      "multinomial": 3562,
      "objective": 3563,
      "Context": 3564,
      "bigrams": 3565,
      "translations": 3566,
      "See": 3567,
      "temperature": 3568,
      "ELATION": 3569,
      "ELIZ": 3570,
      "1988": 3571,
      "fair": 3572,
      "ficial": 3573,
      "NeurIP": 3574,
      "Role": 3575,
      "operators": 3576,
      "Houston": 3577,
      "System": 3578,
      "continue": 3579,
      "VBD": 3580,
      "hypothe": 3581,
      "ABEL": 3582,
      "appears": 3583,
      "powerful": 3584,
      "groups": 3585,
      "digital": 3586,
      "years": 3587,
      "tuples": 3588,
      "Appendix": 3589,
      "quantization": 3590,
      "Structure": 3591,
      "Embeddings": 3592,
      "EURAL": 3593,
      "avoid": 3594,
      "NeurIPS": 3595,
      "88": 3596,
      "Ac": 3597,
      "CM": 3598,
      "Fill": 3599,
      "Hum": 3600,
      "IFT": 3601,
      "L1": 3602,
      "Mic": 3603,
      "Pet": 3604,
      "a1": 3605,
      "ever": 3606,
      "ich": 3607,
      "ious": 3608,
      "na": 3609,
      "q2": 3610,
      "qt": 3611,
      "scoring": 3612,
      "t1": 3613,
      "water": 3614,
      "||": 3615,
      "anu": 3616,
      "oracle": 3617,
      "asing": 3618,
      "dev": 3619,
      "une": 3620,
      "agre": 3621,
      "lie": 3622,
      "sounds": 3623,
      "bytes": 3624,
      "supp": 3625,
      "preferences": 3626,
      "discrimin": 3627,
      "fies": 3628,
      "mmar": 3629,
      "Chang": 3630,
      "generates": 3631,
      "eved": 3632,
      "Comm": 3633,
      "Ans": 3634,
      "auth": 3635,
      "spam": 3636,
      "board": 3637,
      "ARPA": 3638,
      "links": 3639,
      "atory": 3640,
      "ECT": 3641,
      "describ": 3642,
      "Example": 3643,
      "matched": 3644,
      "ODER": 3645,
      "latent": 3646,
      "containing": 3647,
      "characteristic": 3648,
      "property": 3649,
      "randomly": 3650,
      "derived": 3651,
      "linguistics": 3652,
      "Modeling": 3653,
      "marked": 3654,
      "bitr": 3655,
      "Grammar": 3656,
      "FFN": 3657,
      "plays": 3658,
      "indeed": 3659,
      "category": 3660,
      "Evaluating": 3661,
      "Phone": 3662,
      "brack": 3663,
      "visualization": 3664,
      "augmented": 3665,
      "banks": 3666,
      "SHIFT": 3667,
      "syllable": 3668,
      "distinct": 3669,
      "funda": 3670,
      "Statis": 3671,
      "punctuation": 3672,
      "intermediate": 3673,
      "hierarch": 3674,
      "ELIZA": 3675,
      "ABELING": 3676,
      "67": 3677,
      "Ap": 3678,
      "Ba": 3679,
      "Ban": 3680,
      "BAS": 3681,
      "Based": 3682,
      "CF": 3683,
      "Is": 3684,
      "IME": 3685,
      "LD": 3686,
      "Niv": 3687,
      "Op": 3688,
      "Pot": 3689,
      "Ret": 3690,
      "Sto": 3691,
      "Vo": 3692,
      "WQ": 3693,
      "city": 3694,
      "eth": 3695,
      "fal": 3696,
      "future": 3697,
      "paren": 3698,
      "q3": 3699,
      "uh": 3700,
      "usion": 3701,
      "reh": 3702,
      "ending": 3703,
      "ordin": 3704,
      "arbitr": 3705,
      "icago": 3706,
      "ressed": 3707,
      "ush": 3708,
      "pop": 3709,
      "trigram": 3710,
      "acqu": 3711,
      "shor": 3712,
      "grad": 3713,
      "cial": 3714,
      "phones": 3715,
      "Chicago": 3716,
      "generative": 3717,
      "sequent": 3718,
      "mini": 3719,
      "Represent": 3720,
      "Relation": 3721,
      "ACM": 3722,
      "thanks": 3723,
      "spac": 3724,
      "denot": 3725,
      "express": 3726,
      "news": 3727,
      "past": 3728,
      "specify": 3729,
      "ski": 3730,
      "skip": 3731,
      "response": 3732,
      "1965": 3733,
      "tagger": 3734,
      "hyper": 3735,
      "multiplied": 3736,
      "AGENT": 3737,
      "passage": 3738,
      "annotation": 3739,
      "consisting": 3740,
      "allowing": 3741,
      "antecedents": 3742,
      "provides": 3743,
      "filling": 3744,
      "VALL": 3745,
      "continuous": 3746,
      "demonstrations": 3747,
      "legal": 3748,
      "reduce": 3749,
      "EXT": 3750,
      "Lexicon": 3751,
      "drawn": 3752,
      "Analysis": 3753,
      "FrameNet": 3754,
      "Janet": 3755,
      "abstract": 3756,
      "identical": 3757,
      "International": 3758,
      "RIGHTA": 3759,
      "fundamental": 3760,
      "Nivre": 3761,
      "09": 3762,
      "68": 3763,
      "CHAPTER": 3764,
      "CII": 3765,
      "Ed": 3766,
      "Hol": 3767,
      "IJ": 3768,
      "ION": 3769,
      "IST": 3770,
      "Ko": 3771,
      "Mor": 3772,
      "Pr": 3773,
      "PDT": 3774,
      "Ril": 3775,
      "She": 3776,
      "Simp": 3777,
      "TY": 3778,
      "Ty": 3779,
      "Tag": 3780,
      "Two": 3781,
      "fall": 3782,
      "fac": 3783,
      "k2": 3784,
      "ka": 3785,
      "liter": 3786,
      "lists": 3787,
      "sort": 3788,
      "−∞": 3789,
      "inser": 3790,
      "ano": 3791,
      "repla": 3792,
      "oring": 3793,
      "chastic": 3794,
      "leus": 3795,
      "loy": 3796,
      "ull": 3797,
      "concepts": 3798,
      "abase": 3799,
      "polar": 3800,
      "lack": 3801,
      "parses": 3802,
      "preprint": 3803,
      "vice": 3804,
      "synon": 3805,
      "inton": 3806,
      "transcri": 3807,
      "Report": 3808,
      "expresses": 3809,
      "Sequ": 3810,
      "extracting": 3811,
      "ASCII": 3812,
      "colle": 3813,
      "particularly": 3814,
      "going": 3815,
      "Stack": 3816,
      "pping": 3817,
      "LEFT": 3818,
      "constituency": 3819,
      "boundaries": 3820,
      "portion": 3821,
      "drawing": 3822,
      "break": 3823,
      "tuple": 3824,
      "morphological": 3825,
      "blue": 3826,
      "situations": 3827,
      "bootstrap": 3828,
      "Centering": 3829,
      "telephone": 3830,
      "description": 3831,
      "perceptr": 3832,
      "Bengio": 3833,
      "confidence": 3834,
      "Micro": 3835,
      "BASED": 3836,
      "false": 3837,
      "\"[": 3838,
      "05": 3839,
      "51": 3840,
      "77": 3841,
      "Fran": 3842,
      "Ger": 3843,
      "HONE": 3844,
      "LP": 3845,
      "MS": 3846,
      "Mill": 3847,
      "Mik": 3848,
      "Pa": 3849,
      "Pe": 3850,
      "Pi": 3851,
      "Sci": 3852,
      "Score": 3853,
      "WV": 3854,
      "Wil": 3855,
      "drop": 3856,
      "ered": 3857,
      "fra": 3858,
      "fri": 3859,
      "fers": 3860,
      "hd": 3861,
      "hour": 3862,
      "ped": 3863,
      "sor": 3864,
      "uk": 3865,
      "went": 3866,
      "xic": 3867,
      "y3": 3868,
      "yms": 3869,
      "zz": 3870,
      "zil": 3871,
      "anford": 3872,
      "remove": 3873,
      "ison": 3874,
      "arin": 3875,
      "rol": 3876,
      "dele": 3877,
      "sian": 3878,
      "motion": 3879,
      "moving": 3880,
      "unding": 3881,
      "proceed": 3882,
      "abor": 3883,
      "quick": 3884,
      "extreme": 3885,
      "neut": 3886,
      "poses": 3887,
      "lace": 3888,
      "compreh": 3889,
      "formed": 3890,
      "izes": 3891,
      "manner": 3892,
      "logit": 3893,
      "cycle": 3894,
      "ReLU": 3895,
      "ONT": 3896,
      "INE": 3897,
      "ternal": 3898,
      "engine": 3899,
      "calcul": 3900,
      "voic": 3901,
      "normalization": 3902,
      "factor": 3903,
      "horrible": 3904,
      "1960": 3905,
      "ŷt": 3906,
      "Like": 3907,
      "MMAR": 3908,
      "write": 3909,
      "writing": 3910,
      "Although": 3911,
      "averag": 3912,
      "conversational": 3913,
      "Marcu": 3914,
      "Precision": 3915,
      "quantizer": 3916,
      "ediately": 3917,
      "indicate": 3918,
      "morpheme": 3919,
      "optimal": 3920,
      "tells": 3921,
      "sugges": 3922,
      "resource": 3923,
      "comparing": 3924,
      "nearby": 3925,
      "week": 3926,
      "conditioned": 3927,
      "UTF": 3928,
      "immediately": 3929,
      "Klein": 3930,
      "Corpus": 3931,
      "mechanism": 3932,
      "Technical": 3933,
      "slightly": 3934,
      "necessary": 3935,
      "paradigm": 3936,
      "Winograd": 3937,
      "equivalent": 3938,
      "memory": 3939,
      "convenient": 3940,
      "Statistical": 3941,
      "Potts": 3942,
      "Riloff": 3943,
      "\",": 3944,
      "08": 3945,
      "63": 3946,
      "Bra": 3947,
      "Block": 3948,
      "Eth": 3949,
      "From": 3950,
      "Ge": 3951,
      "Go": 3952,
      "Long": 3953,
      "Of": 3954,
      "Our": 3955,
      "Preference": 3956,
      "QK": 3957,
      "QU": 3958,
      "RL": 3959,
      "Senti": 3960,
      "Zha": 3961,
      "[]": 3962,
      "avi": 3963,
      "cis": 3964,
      "ctical": 3965,
      "e2": 3966,
      "ged": 3967,
      "k3": 3968,
      "mask": 3969,
      "pha": 3970,
      "ualized": 3971,
      "v1": 3972,
      "x̂": 3973,
      "ana": 3974,
      "anh": 3975,
      "eries": 3976,
      "ington": 3977,
      "isper": 3978,
      "toNotes": 3979,
      "child": 3980,
      "ita": 3981,
      "urch": 3982,
      "unsupervised": 3983,
      "agency": 3984,
      "ili": 3985,
      "connotation": 3986,
      "dies": 3987,
      "diag": 3988,
      "never": 3989,
      "pointer": 3990,
      "olar": 3991,
      "formant": 3992,
      "acy": 3993,
      "premi": 3994,
      "tered": 3995,
      "Instruction": 3996,
      "valid": 3997,
      "five": 3998,
      "novel": 3999,
      "differ": 4000,
      "INK": 4001,
      "subsequent": 4002,
      "Most": 4003,
      "effect": 4004,
      "1980": 4005,
      "1976": 4006,
      "1966": 4007,
      "measures": 4008,
      "262": 4009,
      "lectional": 4010,
      "talking": 4011,
      "Schw": 4012,
      "ordering": 4013,
      "Joshi": 4014,
      "OntoNotes": 4015,
      "ISTIC": 4016,
      "combine": 4017,
      "survey": 4018,
      "personal": 4019,
      "TICS": 4020,
      "VALU": 4021,
      "volume": 4022,
      "categories": 4023,
      "emotions": 4024,
      "refers": 4025,
      "suffix": 4026,
      "xxxx": 4027,
      "efficiently": 4028,
      "pleas": 4029,
      "HuBERT": 4030,
      "resources": 4031,
      "micro": 4032,
      "ranked": 4033,
      "Classi": 4034,
      "NTITY": 4035,
      "advantage": 4036,
      "brief": 4037,
      "EPEND": 4038,
      "Named": 4039,
      "Understanding": 4040,
      "Answer": 4041,
      "Retri": 4042,
      "shorter": 4043,
      "spaces": 4044,
      "PDTB": 4045,
      "polarity": 4046,
      "Microsoft": 4047,
      "friend": 4048,
      "extremely": 4049,
      "(−": 4050,
      "54": 4051,
      "CD": 4052,
      "Cb": 4053,
      "Camb": 4054,
      "EG": 4055,
      "EST": 4056,
      "FERENCE": 4057,
      "Gre": 4058,
      "Glo": 4059,
      "Her": 4060,
      "Hov": 4061,
      "MB": 4062,
      "MF": 4063,
      "Mand": 4064,
      "Switch": 4065,
      "Test": 4066,
      "Val": 4067,
      "Zet": 4068,
      "evidence": 4069,
      "gle": 4070,
      "gate": 4071,
      "ise": 4072,
      "ror": 4073,
      "yk": 4074,
      "ina": 4075,
      "inside": 4076,
      "inverse": 4077,
      "enk": 4078,
      "ert": 4079,
      "toxic": 4080,
      "edges": 4081,
      "road": 4082,
      "dep": 4083,
      "decre": 4084,
      "dered": 4085,
      "weak": 4086,
      "moyer": 4087,
      "unseen": 4088,
      "agree": 4089,
      "users": 4090,
      "dial": 4091,
      "peare": 4092,
      "pooling": 4093,
      "byte": 4094,
      "partial": 4095,
      "perfect": 4096,
      "sup": 4097,
      "domin": 4098,
      "viol": 4099,
      "nodes": 4100,
      "upper": 4101,
      "attend": 4102,
      "Conference": 4103,
      "testing": 4104,
      "vestig": 4105,
      "flights": 4106,
      "codebook": 4107,
      "Whisper": 4108,
      "1987": 4109,
      "1989": 4110,
      "1977": 4111,
      "383": 4112,
      "face": 4113,
      "gets": 4114,
      "kespeare": 4115,
      "ova": 4116,
      "directed": 4117,
      "MMLU": 4118,
      "scaling": 4119,
      "wrong": 4120,
      "annotators": 4121,
      "statistics": 4122,
      "cells": 4123,
      "segmentation": 4124,
      "Ques": 4125,
      "Pradh": 4126,
      "tributed": 4127,
      "front": 4128,
      "piece": 4129,
      "walk": 4130,
      "Steven": 4131,
      "tlemoyer": 4132,
      "scripts": 4133,
      "https": 4134,
      "overlap": 4135,
      "Shakespeare": 4136,
      "assuming": 4137,
      "Relations": 4138,
      "elimin": 4139,
      "static": 4140,
      "Human": 4141,
      "LEFTA": 4142,
      "EPENDENCY": 4143,
      "Mandarin": 4144,
      "Zettlemoyer": 4145,
      "Pradhan": 4146,
      ".”": 4147,
      "02": 4148,
      "500": 4149,
      "86": 4150,
      "96": 4151,
      "Acade": 4152,
      "Cat": 4153,
      "Dy": 4154,
      "Dev": 4155,
      "Four": 4156,
      "Jel": 4157,
      "Mention": 4158,
      "NAM": 4159,
      "Pie": 4160,
      "QA": 4161,
      "Te": 4162,
      "Table": 4163,
      "VE": 4164,
      "WOR": 4165,
      "X3": 4166,
      "YO": 4167,
      "ais": 4168,
      "cup": 4169,
      "e1": 4170,
      "ff": 4171,
      "lit": 4172,
      "nd": 4173,
      "ok": 4174,
      "olov": 4175,
      "s1": 4176,
      "tanh": 4177,
      "va": 4178,
      "vir": 4179,
      "x̃": 4180,
      "zt": 4181,
      "infor": 4182,
      "thed": 4183,
      "theless": 4184,
      "enor": 4185,
      "timat": 4186,
      "tificial": 4187,
      "sections": 4188,
      "round": 4189,
      "igence": 4190,
      "became": 4191,
      "uned": 4192,
      "respe": 4193,
      "extension": 4194,
      "adverb": 4195,
      "polic": 4196,
      "compared": 4197,
      "havi": 4198,
      "inek": 4199,
      "singular": 4200,
      "ERB": 4201,
      "ards": 4202,
      "transfer": 4203,
      "thous": 4204,
      "Form": 4205,
      "folds": 4206,
      "tagset": 4207,
      "depends": 4208,
      "centur": 4209,
      "translate": 4210,
      "encoders": 4211,
      "afety": 4212,
      "sensitive": 4213,
      "Why": 4214,
      "responses": 4215,
      "rowd": 4216,
      "normalize": 4217,
      "factors": 4218,
      "408": 4219,
      "mainly": 4220,
      "closer": 4221,
      "places": 4222,
      "Translation": 4223,
      "aligned": 4224,
      "ICASSP": 4225,
      "ITH": 4226,
      "dividing": 4227,
      "solute": 4228,
      "combined": 4229,
      "alignments": 4230,
      "Graves": 4231,
      "ittle": 4232,
      "After": 4233,
      "Semantics": 4234,
      "relationships": 4235,
      "completely": 4236,
      "ETWOR": 4237,
      "science": 4238,
      "interpretation": 4239,
      "Logistic": 4240,
      "restrictions": 4241,
      "paper": 4242,
      "consonants": 4243,
      "remaining": 4244,
      "TING": 4245,
      "collap": 4246,
      "percentage": 4247,
      "restaurant": 4248,
      "adjac": 4249,
      "Fillmore": 4250,
      "arbitrary": 4251,
      "HONETICS": 4252,
      "Mikolov": 4253,
      "Retrieval": 4254,
      "Cambridge": 4255,
      "Jelinek": 4256,
      "enormous": 4257,
      ")]": 4258,
      "06": 4259,
      "07": 4260,
      "1000": 4261,
      "82": 4262,
      "Ara": 4263,
      "BLE": 4264,
      "DING": 4265,
      "EOS": 4266,
      "GPT": 4267,
      "Good": 4268,
      "Jane": 4269,
      "Know": 4270,
      "L2": 4271,
      "Lu": 4272,
      "Out": 4273,
      "PO": 4274,
      "Part": 4275,
      "PRO": 4276,
      "TACL": 4277,
      "Wash": 4278,
      "ath": 4279,
      "bur": 4280,
      "fish": 4281,
      "fric": 4282,
      "gs": 4283,
      "h2": 4284,
      "hol": 4285,
      "ix": 4286,
      "jud": 4287,
      "land": 4288,
      "little": 4289,
      "plot": 4290,
      "sine": 4291,
      "ues": 4292,
      "war": 4293,
      "wit": 4294,
      "yet": 4295,
      "inci": 4296,
      "investig": 4297,
      "ret": 4298,
      "selected": 4299,
      "arrow": 4300,
      "essenti": 4301,
      "tom": 4302,
      "edition": 4303,
      "chat": 4304,
      "chic": 4305,
      "dec": 4306,
      "siti": 4307,
      "igno": 4308,
      "proto": 4309,
      "projective": 4310,
      "tically": 4311,
      "fel": 4312,
      "adjust": 4313,
      "poly": 4314,
      "rench": 4315,
      "ampli": 4316,
      "suas": 4317,
      "izers": 4318,
      "transcrip": 4319,
      "generalize": 4320,
      "database": 4321,
      "Cogn": 4322,
      "lexi": 4323,
      "INING": 4324,
      "lication": 4325,
      "lications": 4326,
      "ENS": 4327,
      "included": 4328,
      "counting": 4329,
      "backpropagation": 4330,
      "centering": 4331,
      "weighting": 4332,
      "Promp": 4333,
      "ECOG": 4334,
      "structured": 4335,
      "essay": 4336,
      "topic": 4337,
      "Stanford": 4338,
      "address": 4339,
      "iteratively": 4340,
      "selves": 4341,
      "chapters": 4342,
      "Computer": 4343,
      "Algorith": 4344,
      "restri": 4345,
      "typically": 4346,
      "treat": 4347,
      "solve": 4348,
      "employ": 4349,
      "ATE": 4350,
      "required": 4351,
      "estimation": 4352,
      "reasoning": 4353,
      "paths": 4354,
      "objects": 4355,
      "earliest": 4356,
      "univers": 4357,
      "smoothed": 4358,
      "referent": 4359,
      "didn": 4360,
      "purposes": 4361,
      "Kleene": 4362,
      "anaphoricity": 4363,
      "NITION": 4364,
      "preferred": 4365,
      "family": 4366,
      "efficiency": 4367,
      "participants": 4368,
      "Barzil": 4369,
      "Indeed": 4370,
      "Euro": 4371,
      "Extraction": 4372,
      "Palmer": 4373,
      "interpolation": 4374,
      "nucleus": 4375,
      "RESSION": 4376,
      "agreement": 4377,
      "Sequence": 4378,
      "Francis": 4379,
      "hours": 4380,
      "comprehension": 4381,
      "Hovy": 4382,
      "MFCC": 4383,
      "Switchboard": 4384,
      "dialect": 4385,
      "respective": 4386,
      "Washington": 4387,
      "chicken": 4388,
      "ECOGNITION": 4389,
      "Barzilay": 4390,
      "312": 4391,
      "83": 4392,
      "Ass": 4393,
      "Bald": 4394,
      "CH": 4395,
      "EAT": 4396,
      "French": 4397,
      "Gold": 4398,
      "HE": 4399,
      "ID": 4400,
      "IF": 4401,
      "Kar": 4402,
      "Mart": 4403,
      "NF": 4404,
      "NS": 4405,
      "NFORM": 4406,
      "Py": 4407,
      "Ra": 4408,
      "Sur": 4409,
      "Shi": 4410,
      "Sam": 4411,
      "Spr": 4412,
      "Such": 4413,
      "XOR": 4414,
      "YY": 4415,
      "ade": 4416,
      "aard": 4417,
      "ben": 4418,
      "cir": 4419,
      "cneg": 4420,
      "dated": 4421,
      "fast": 4422,
      "glot": 4423,
      "hal": 4424,
      "hart": 4425,
      "k4": 4426,
      "len": 4427,
      "mu": 4428,
      "mber": 4429,
      "maps": 4430,
      "omin": 4431,
      "rd": 4432,
      "rat": 4433,
      "tn": 4434,
      "udo": 4435,
      "πθ": 4436,
      "∂∂": 4437,
      "recur": 4438,
      "alpha": 4439,
      "attribut": 4440,
      "chun": 4441,
      "chall": 4442,
      "ashi": 4443,
      "simul": 4444,
      "exam": 4445,
      "igrams": 4446,
      "proso": 4447,
      "program": 4448,
      "ussian": 4449,
      "absolute": 4450,
      "arest": 4451,
      "soph": 4452,
      "1950": 4453,
      "atell": 4454,
      "amples": 4455,
      "speaking": 4456,
      "entific": 4457,
      "onetheless": 4458,
      "presented": 4459,
      "setting": 4460,
      "Church": 4461,
      "oogle": 4462,
      "baseline": 4463,
      "mining": 4464,
      "TIES": 4465,
      "contextualized": 4466,
      "imag": 4467,
      "classic": 4468,
      "ACH": 4469,
      "region": 4470,
      "split": 4471,
      "passes": 4472,
      "Moha": 4473,
      "centro": 4474,
      "variant": 4475,
      "Second": 4476,
      "interval": 4477,
      "waves": 4478,
      "Proper": 4479,
      "evaluating": 4480,
      "1982": 4481,
      "1972": 4482,
      "performing": 4483,
      "treebanks": 4484,
      "tagged": 4485,
      "ideas": 4486,
      "detect": 4487,
      "closed": 4488,
      "corresponds": 4489,
      "gradients": 4490,
      "predicates": 4491,
      "EDDING": 4492,
      "ICAL": 4493,
      "Altern": 4494,
      "stochastic": 4495,
      "operation": 4496,
      "Once": 4497,
      "spectro": 4498,
      "relevance": 4499,
      "separated": 4500,
      "empty": 4501,
      "observations": 4502,
      "levels": 4503,
      "aneous": 4504,
      "Bidirectional": 4505,
      "spectral": 4506,
      "LSTMs": 4507,
      "practical": 4508,
      "took": 4509,
      "increased": 4510,
      "odds": 4511,
      "control": 4512,
      "articles": 4513,
      "Cardie": 4514,
      "UCTION": 4515,
      "Strube": 4516,
      "terminals": 4517,
      "OGISTIC": 4518,
      "trying": 4519,
      "broad": 4520,
      "limited": 4521,
      "Webber": 4522,
      "communic": 4523,
      "LREC": 4524,
      "public": 4525,
      "composition": 4526,
      "square": 4527,
      "substitutions": 4528,
      "ORDS": 4529,
      "IJC": 4530,
      "Miller": 4531,
      "Zhao": 4532,
      "pleasant": 4533,
      "EGRESSION": 4534,
      "ETWORKS": 4535,
      "EATURE": 4536,
      "NFORMATION": 4537,
      "EDDINGS": 4538,
      "314": 4539,
      "512": 4540,
      "85": 4541,
      "91": 4542,
      "98": 4543,
      "Cross": 4544,
      "ETR": 4545,
      "Fol": 4546,
      "Further": 4547,
      "Google": 4548,
      "Ji": 4549,
      "Kh": 4550,
      "Morgan": 4551,
      "Pap": 4552,
      "Sund": 4553,
      "UM": 4554,
      "VD": 4555,
      "WO": 4556,
      "Wi": 4557,
      "Xu": 4558,
      "Yor": 4559,
      "_base": 4560,
      "ama": 4561,
      "bits": 4562,
      "cpos": 4563,
      "crowd": 4564,
      "ey": 4565,
      "ffer": 4566,
      "hler": 4567,
      "historical": 4568,
      "ire": 4569,
      "ira": 4570,
      "jam": 4571,
      "lor": 4572,
      "pay": 4573,
      "rin": 4574,
      "slo": 4575,
      "sweet": 4576,
      "tense": 4577,
      "uth": 4578,
      "vark": 4579,
      "wj": 4580,
      "x5": 4581,
      "ymy": 4582,
      "internal": 4583,
      "theore": 4584,
      "ened": 4585,
      "ats": 4586,
      "attemp": 4587,
      "seudo": 4588,
      "isn": 4589,
      "isms": 4590,
      "isition": 4591,
      "esio": 4592,
      "cherry": 4593,
      "lecting": 4594,
      "utch": 4595,
      "except": 4596,
      "met": 4597,
      "beau": 4598,
      "diver": 4599,
      "queries": 4600,
      "ries": 4601,
      "nearest": 4602,
      "positi": 4603,
      "compression": 4604,
      "cles": 4605,
      "sha1": 4606,
      "correl": 4607,
      "sions": 4608,
      "typology": 4609,
      "note": 4610,
      "noise": 4611,
      "why": 4612,
      "update": 4613,
      "updated": 4614,
      "Read": 4615,
      "classify": 4616,
      "courses": 4617,
      "attle": 4618,
      "caused": 4619,
      "lished": 4620,
      "giving": 4621,
      "needed": 4622,
      "variation": 4623,
      "ALL": 4624,
      "ASK": 4625,
      "Prob": 4626,
      "evaluations": 4627,
      "1978": 4628,
      "385": 4629,
      "pointing": 4630,
      "buffer": 4631,
      "jection": 4632,
      "argumentation": 4633,
      "ODEC": 4634,
      "ctives": 4635,
      "Transactions": 4636,
      "gments": 4637,
      "equations": 4638,
      "363": 4639,
      "relatedness": 4640,
      "versions": 4641,
      "combining": 4642,
      "estimated": 4643,
      "Metho": 4644,
      "summing": 4645,
      "fields": 4646,
      "domains": 4647,
      "columns": 4648,
      "indicating": 4649,
      "connected": 4650,
      "Arg1": 4651,
      "Poesio": 4652,
      "amounts": 4653,
      "happens": 4654,
      "=\">": 4655,
      "baum": 4656,
      "Vector": 4657,
      "situation": 4658,
      "involves": 4659,
      "scheme": 4660,
      "Feature": 4661,
      "huge": 4662,
      "ARGE": 4663,
      "channels": 4664,
      "IEVAL": 4665,
      "meeting": 4666,
      "Labeling": 4667,
      "OREFERENCE": 4668,
      "mmad": 4669,
      "TIMEX3": 4670,
      "Common": 4671,
      "author": 4672,
      "Banking": 4673,
      "Simple": 4674,
      "replaced": 4675,
      "neutral": 4676,
      "Sentiment": 4677,
      "adjacent": 4678,
      "aardvark": 4679,
      "centroid": 4680,
      "ETRIEVAL": 4681,
      "_base64": 4682,
      "sha1_base64": 4683,
      ")).": 4684,
      "+|": 4685,
      "320": 4686,
      "315": 4687,
      "52": 4688,
      "AP": 4689,
      "Am": 4690,
      "Blo": 4691,
      "Chi": 4692,
      "CON": 4693,
      "Don": 4694,
      "Ev": 4695,
      "Eval": 4696,
      "Hear": 4697,
      "Haj": 4698,
      "JAS": 4699,
      "Jones": 4700,
      "Ki": 4701,
      "Kl": 4702,
      "Mon": 4703,
      "May": 4704,
      "Mary": 4705,
      "NC": 4706,
      "Non": 4707,
      "Pron": 4708,
      "RD": 4709,
      "Ram": 4710,
      "Sag": 4711,
      "Sel": 4712,
      "Tay": 4713,
      "TEM": 4714,
      "VERB": 4715,
      "Wag": 4716,
      "bill": 4717,
      "ffe": 4718,
      "gar": 4719,
      "hdi": 4720,
      "hub": 4721,
      "ki": 4722,
      "ming": 4723,
      "night": 4724,
      "pseudo": 4725,
      "safety": 4726,
      "satell": 4727,
      "yn": 4728,
      "ı́": 4729,
      "”).": 4730,
      "thon": 4731,
      "invent": 4732,
      "really": 4733,
      "thematical": 4734,
      "theories": 4735,
      "ato": 4736,
      "ising": 4737,
      "aring": 4738,
      "estimat": 4739,
      "rote": 4740,
      "copy": 4741,
      "stages": 4742,
      "decl": 4743,
      "sible": 4744,
      "het": 4745,
      "exist": 4746,
      "mouth": 4747,
      "urations": 4748,
      "worst": 4749,
      "ager": 4750,
      "conjunction": 4751,
      "terday": 4752,
      "ades": 4753,
      "pool": 4754,
      "rences": 4755,
      "accomp": 4756,
      "acks": 4757,
      "accept": 4758,
      "trace": 4759,
      "traditional": 4760,
      "valued": 4761,
      "desired": 4762,
      "paired": 4763,
      "corefer": 4764,
      "options": 4765,
      "overall": 4766,
      "auer": 4767,
      "subset": 4768,
      "expressing": 4769,
      "translating": 4770,
      "variables": 4771,
      "expensive": 4772,
      "mbers": 4773,
      "1970": 4774,
      "held": 4775,
      "1969": 4776,
      "409": 4777,
      "buy": 4778,
      "REE": 4779,
      "multiplying": 4780,
      "correspond": 4781,
      "phonetics": 4782,
      "writer": 4783,
      "houston": 4784,
      "observed": 4785,
      "combination": 4786,
      "schem": 4787,
      "summary": 4788,
      "LSA": 4789,
      "harmon": 4790,
      "decisions": 4791,
      "increases": 4792,
      "IGN": 4793,
      "AAAI": 4794,
      "implemented": 4795,
      "toolk": 4796,
      "melhart": 4797,
      "clean": 4798,
      "greater": 4799,
      "bility": 4800,
      "reduced": 4801,
      "identification": 4802,
      "tests": 4803,
      "Rule": 4804,
      "Rumelhart": 4805,
      "Henc": 4806,
      "relatively": 4807,
      "Allen": 4808,
      "bottom": 4809,
      "filtering": 4810,
      "Kehler": 4811,
      "yesterday": 4812,
      "Index": 4813,
      "NOUN": 4814,
      "Syntactic": 4815,
      "Levy": 4816,
      "items": 4817,
      "interested": 4818,
      "cepstral": 4819,
      "stereotypes": 4820,
      "ELATIONS": 4821,
      "characteristics": 4822,
      "hierarchical": 4823,
      "Stevens": 4824,
      "NAMED": 4825,
      "Piece": 4826,
      "policy": 4827,
      "BLEU": 4828,
      "Output": 4829,
      "beauti": 4830,
      "311": 4831,
      "318": 4832,
      "321": 4833,
      "61": 4834,
      "78": 4835,
      "92": 4836,
      ">>": 4837,
      "Baker": 4838,
      "EQU": 4839,
      "Frid": 4840,
      "GO": 4841,
      "Ga": 4842,
      "Gu": 4843,
      "Gro": 4844,
      "HERENCE": 4845,
      "Hinton": 4846,
      "Ju": 4847,
      "Lat": 4848,
      "LAS": 4849,
      "LATION": 4850,
      "Nonetheless": 4851,
      "Os": 4852,
      "OLU": 4853,
      "Psycho": 4854,
      "Rad": 4855,
      "Sm": 4856,
      "Samp": 4857,
      "Tim": 4858,
      "TAC": 4859,
      "TAG": 4860,
      "User": 4861,
      "bic": 4862,
      "bly": 4863,
      "brid": 4864,
      "cast": 4865,
      "fare": 4866,
      "hate": 4867,
      "ji": 4868,
      "kHz": 4869,
      "media": 4870,
      "nor": 4871,
      "nature": 4872,
      "pal": 4873,
      "pack": 4874,
      "pages": 4875,
      "ten": 4876,
      "tze": 4877,
      "ware": 4878,
      "wrote": 4879,
      "zq": 4880,
      "zen": 4881,
      "thres": 4882,
      "infer": 4883,
      "anim": 4884,
      "reach": 4885,
      "ena": 4886,
      "ender": 4887,
      "atz": 4888,
      "offer": 4889,
      "edel": 4890,
      "ster": 4891,
      "entries": 4892,
      "forcing": 4893,
      "veolar": 4894,
      "lou": 4895,
      "proced": 4896,
      "propos": 4897,
      "vert": 4898,
      "delta": 4899,
      "angle": 4900,
      "mail": 4901,
      "lama": 4902,
      "persuas": 4903,
      "account": 4904,
      "tein": 4905,
      "teach": 4906,
      "travel": 4907,
      "disco": 4908,
      "dou": 4909,
      "duction": 4910,
      "probably": 4911,
      "tokenized": 4912,
      "ames": 4913,
      "ayes": 4914,
      "phase": 4915,
      "Tho": 4916,
      "fier": 4917,
      "Choi": 4918,
      "nominal": 4919,
      "mind": 4920,
      "uppose": 4921,
      "serve": 4922,
      "numer": 4923,
      "introduction": 4924,
      "productions": 4925,
      "Contin": 4926,
      "princi": 4927,
      "specified": 4928,
      "decoders": 4929,
      "priv": 4930,
      "lins": 4931,
      "1984": 4932,
      "Examples": 4933,
      "normalizing": 4934,
      "recognize": 4935,
      "occurrences": 4936,
      "1979": 4937,
      "predicted": 4938,
      "331": 4939,
      "graphs": 4940,
      "multiply": 4941,
      "Schü": 4942,
      "helps": 4943,
      "sources": 4944,
      "ranch": 4945,
      "retrieved": 4946,
      "understand": 4947,
      "plural": 4948,
      "bitext": 4949,
      "Notice": 4950,
      "tends": 4951,
      "Graph": 4952,
      "begins": 4953,
      "focused": 4954,
      "PARTS": 4955,
      "downstream": 4956,
      "segments": 4957,
      "applying": 4958,
      "digits": 4959,
      "Collins": 4960,
      "articulation": 4961,
      "captures": 4962,
      "clause": 4963,
      "linked": 4964,
      "leading": 4965,
      "tools": 4966,
      "billion": 4967,
      "organization": 4968,
      "tunately": 4969,
      "mapped": 4970,
      "technique": 4971,
      "UTE": 4972,
      "Subject": 4973,
      "influential": 4974,
      "removing": 4975,
      "schematic": 4976,
      "NTITIES": 4977,
      "RANSFORM": 4978,
      "restriction": 4979,
      "efficients": 4980,
      "OKENS": 4981,
      "synthetic": 4982,
      "www": 4983,
      "magn": 4984,
      "explore": 4985,
      "Description": 4986,
      "attachment": 4987,
      "Error": 4988,
      "hypotheses": 4989,
      "Phonetics": 4990,
      "Appro": 4991,
      "acquisition": 4992,
      "ISTOR": 4993,
      "perceptron": 4994,
      "German": 4995,
      "voiced": 4996,
      "INKING": 4997,
      "Classification": 4998,
      "MBEDDINGS": 4999,
      "suppose": 5000,
      "Academic": 5001,
      "Arabic": 5002,
      "judgments": 5003,
      "Europe": 5004,
      "Francisco": 5005,
      "Goldberg": 5006,
      "Python": 5007,
      "raters": 5008,
      "York": 5009,
      "Methods": 5010,
      "Pronoun": 5011,
      "hetorical": 5012,
      "OLUTION": 5013,
      "Schütze": 5014,
      ",:": 5015,
      "120": 5016,
      "313": 5017,
      "316": 5018,
      "410": 5019,
      "71": 5020,
      "73": 5021,
      "93": 5022,
      "=”": 5023,
      "Black": 5024,
      "Bayes": 5025,
      "CNN": 5026,
      "CNF": 5027,
      "Dat": 5028,
      "Early": 5029,
      "EVENT": 5030,
      "F0": 5031,
      "Frequ": 5032,
      "Feat": 5033,
      "GR": 5034,
      "Gros": 5035,
      "Ham": 5036,
      "Hob": 5037,
      "IL": 5038,
      "Id": 5039,
      "List": 5040,
      "Mer": 5041,
      "Mat": 5042,
      "Match": 5043,
      "Nom": 5044,
      "Over": 5045,
      "OHERENCE": 5046,
      "Pit": 5047,
      "Red": 5048,
      "Suppose": 5049,
      "TE": 5050,
      "Task": 5051,
      "UAL": 5052,
      "X2": 5053,
      "]\"": 5054,
      "a3": 5055,
      "band": 5056,
      "bad": 5057,
      "branch": 5058,
      "dle": 5059,
      "eh": 5060,
      "gl": 5061,
      "hall": 5062,
      "job": 5063,
      "lated": 5064,
      "s2": 5065,
      "uw": 5066,
      "v2": 5067,
      "vor": 5068,
      "win": 5069,
      "x4": 5070,
      "́n": 5071,
      "’)": 5072,
      "inion": 5073,
      "incorpor": 5074,
      "annon": 5075,
      "recor": 5076,
      "reject": 5077,
      "almost": 5078,
      "alveolar": 5079,
      "atus": 5080,
      "asking": 5081,
      "sty": 5082,
      "deg": 5083,
      "deanu": 5084,
      "sident": 5085,
      "sized": 5086,
      "herence": 5087,
      "vered": 5088,
      "mouse": 5089,
      "modif": 5090,
      "behavi": 5091,
      "urs": 5092,
      "unlike": 5093,
      "los": 5094,
      "contra": 5095,
      "died": 5096,
      "aby": 5097,
      "female": 5098,
      "rice": 5099,
      "ado": 5100,
      "adjective": 5101,
      "1957": 5102,
      "active": 5103,
      "tep": 5104,
      "kend": 5105,
      "disjunction": 5106,
      "spell": 5107,
      "due": 5108,
      "intention": 5109,
      "geo": 5110,
      "ides": 5111,
      "sson": 5112,
      "arities": 5113,
      "Coherence": 5114,
      "oppos": 5115,
      "ENTI": 5116,
      "introduces": 5117,
      "producing": 5118,
      "Connotation": 5119,
      "background": 5120,
      "expressed": 5121,
      "256": 5122,
      "258": 5123,
      "classified": 5124,
      "effective": 5125,
      "timestep": 5126,
      "themselves": 5127,
      "EMAN": 5128,
      "1983": 5129,
      "1973": 5130,
      "merges": 5131,
      "1967": 5132,
      "Languages": 5133,
      "260": 5134,
      "detected": 5135,
      "aphora": 5136,
      "ICLR": 5137,
      "house": 5138,
      "Universal": 5139,
      "anaphora": 5140,
      "ensity": 5141,
      "surpri": 5142,
      "Networks": 5143,
      "born": 5144,
      "finetuned": 5145,
      "ranges": 5146,
      "Affect": 5147,
      "TOMA": 5148,
      "article": 5149,
      "articul": 5150,
      "implementation": 5151,
      "claim": 5152,
      "issue": 5153,
      "unique": 5154,
      "illustrated": 5155,
      "Transformers": 5156,
      "framed": 5157,
      "referential": 5158,
      "dictionaries": 5159,
      "Prag": 5160,
      "jectivity": 5161,
      "visualize": 5162,
      "vanced": 5163,
      "Johnson": 5164,
      "OTES": 5165,
      "Shannon": 5166,
      "BM25": 5167,
      "Lexical": 5168,
      "check": 5169,
      "Perhaps": 5170,
      "dealing": 5171,
      "stride": 5172,
      "confusion": 5173,
      "easier": 5174,
      "Feed": 5175,
      "maximize": 5176,
      "papers": 5177,
      "consistent": 5178,
      "AUTOMA": 5179,
      "Introdu": 5180,
      "Similarly": 5181,
      "devset": 5182,
      "CFG": 5183,
      "Lexicons": 5184,
      "quickly": 5185,
      "ONTEXT": 5186,
      "suggests": 5187,
      "validation": 5188,
      "Green": 5189,
      "thousands": 5190,
      "respectively": 5191,
      "Surdeanu": 5192,
      "Springer": 5193,
      "ACHINE": 5194,
      "spectrogram": 5195,
      "positives": 5196,
      "Hearst": 5197,
      "Wagner": 5198,
      "Friday": 5199,
      "Smith": 5200,
      "proposal": 5201,
      "ISTORICAL": 5202,
      "European": 5203,
      "Features": 5204,
      "Grosz": 5205,
      "Hobbs": 5206,
      "halluc": 5207,
      "modify": 5208,
      "AUTOMATIC": 5209,
      "([": 5210,
      "(‘": 5211,
      ")=": 5212,
      "/.": 5213,
      "69": 5214,
      "BI": 5215,
      "Bah": 5216,
      "Equ": 5217,
      "Even": 5218,
      "Emotion": 5219,
      "Gale": 5220,
      "Ha": 5221,
      "Hirst": 5222,
      "IW": 5223,
      "LG": 5224,
      "Leven": 5225,
      "Max": 5226,
      "NSP": 5227,
      "NOT": 5228,
      "Ob": 5229,
      "Och": 5230,
      "Pl": 5231,
      "Pattern": 5232,
      "Pair": 5233,
      "SO": 5234,
      "Soft": 5235,
      "Sample": 5236,
      "TU": 5237,
      "Tow": 5238,
      "Vol": 5239,
      "West": 5240,
      "X1": 5241,
      "bust": 5242,
      "card": 5243,
      "dx": 5244,
      "email": 5245,
      "grow": 5246,
      "h3": 5247,
      "ij": 5248,
      "n0": 5249,
      "ological": 5250,
      "pt": 5251,
      "plic": 5252,
      "push": 5253,
      "slot": 5254,
      "taneous": 5255,
      "ude": 5256,
      "vs": 5257,
      "vy": 5258,
      "w3": 5259,
      "ya": 5260,
      "{{": 5261,
      "},": 5262,
      "inf": 5263,
      "iness": 5264,
      "rely": 5265,
      "repor": 5266,
      "enge": 5267,
      "enom": 5268,
      "tition": 5269,
      "atur": 5270,
      "secon": 5271,
      "sess": 5272,
      "isch": 5273,
      "arity": 5274,
      "araj": 5275,
      "robust": 5276,
      "coefficients": 5277,
      "ston": 5278,
      "stance": 5279,
      "ationary": 5280,
      "utes": 5281,
      "heim": 5282,
      "cts": 5283,
      "expe": 5284,
      "moto": 5285,
      "becomes": 5286,
      "icb": 5287,
      "lip": 5288,
      "fewer": 5289,
      "anger": 5290,
      "modeled": 5291,
      "neffe": 5292,
      "adds": 5293,
      "advance": 5294,
      "kel": 5295,
      "derson": 5296,
      "compe": 5297,
      "discourses": 5298,
      "syste": 5299,
      "erson": 5300,
      "logically": 5301,
      "nology": 5302,
      "oods": 5303,
      "cycles": 5304,
      "upcoming": 5305,
      "pati": 5306,
      "ught": 5307,
      "isticated": 5308,
      "aria": 5309,
      "request": 5310,
      "regex": 5311,
      "denomin": 5312,
      "obvious": 5313,
      "189": 5314,
      "backoff": 5315,
      "singleton": 5316,
      "versus": 5317,
      "Modern": 5318,
      "center": 5319,
      "processed": 5320,
      "Selectional": 5321,
      "cold": 5322,
      "occurring": 5323,
      "Deep": 5324,
      "taggers": 5325,
      "State": 5326,
      "RED": 5327,
      "argumentative": 5328,
      "capit": 5329,
      "390": 5330,
      "equally": 5331,
      "rawl": 5332,
      "originally": 5333,
      "derivation": 5334,
      "marker": 5335,
      "predicts": 5336,
      "470": 5337,
      "Finding": 5338,
      "airline": 5339,
      "ESOLUTION": 5340,
      "Marneffe": 5341,
      "mix": 5342,
      "provided": 5343,
      "starts": 5344,
      "ranging": 5345,
      "indicates": 5346,
      "Arg2": 5347,
      "UNING": 5348,
      "subjects": 5349,
      "Which": 5350,
      "pione": 5351,
      "closest": 5352,
      "richer": 5353,
      "determining": 5354,
      "EXIC": 5355,
      "happy": 5356,
      "Laplace": 5357,
      "explicitly": 5358,
      "MLP": 5359,
      "morphology": 5360,
      "convert": 5361,
      "sketches": 5362,
      "concatenated": 5363,
      "summarization": 5364,
      "minimize": 5365,
      "Harris": 5366,
      "limit": 5367,
      "General": 5368,
      "marks": 5369,
      "RANSLATION": 5370,
      "leave": 5371,
      "middle": 5372,
      "Supervised": 5373,
      "WSJ": 5374,
      "Denver": 5375,
      "Temporal": 5376,
      "driven": 5377,
      "SentencePiece": 5378,
      "Minimum": 5379,
      "STRUCTION": 5380,
      "Schema": 5381,
      "mass": 5382,
      "reconstruction": 5383,
      "integr": 5384,
      "suggested": 5385,
      "adapted": 5386,
      "ARPAbet": 5387,
      "describing": 5388,
      "brackets": 5389,
      "proceeds": 5390,
      "Schwenk": 5391,
      "briefly": 5392,
      "Fourier": 5393,
      "century": 5394,
      "sophisticated": 5395,
      "imagine": 5396,
      "Mohammad": 5397,
      "slope": 5398,
      "JASA": 5399,
      "Self": 5400,
      "satellite": 5401,
      "EQUENCE": 5402,
      "threshold": 5403,
      "procedure": 5404,
      "magnitude": 5405,
      "Approach": 5406,
      "degree": 5407,
      "seconds": 5408,
      "denominator": 5409,
      ")|": 5410,
      "04": 5411,
      "1X": 5412,
      "300": 5413,
      "310": 5414,
      "=</": 5415,
      "?”": 5416,
      "Cla": 5417,
      "Coun": 5418,
      "Du": 5419,
      "Dur": 5420,
      "Ef": 5421,
      "Fer": 5422,
      "Free": 5423,
      "Gil": 5424,
      "H0": 5425,
      "Hann": 5426,
      "Kay": 5427,
      "Law": 5428,
      "M2": 5429,
      "MO": 5430,
      "NSTRUCTION": 5431,
      "Pol": 5432,
      "SM": 5433,
      "Sal": 5434,
      "Scal": 5435,
      "UL": 5436,
      "Uh": 5437,
      "Use": 5438,
      "Wa": 5439,
      "WER": 5440,
      "Where": 5441,
      "WITH": 5442,
      "XY": 5443,
      "Xue": 5444,
      "bul": 5445,
      "bru": 5446,
      "baby": 5447,
      "dit": 5448,
      "dum": 5449,
      "e4": 5450,
      "ec": 5451,
      "eve": 5452,
      "fro": 5453,
      "gi": 5454,
      "gover": 5455,
      "hes": 5456,
      "iel": 5457,
      "kar": 5458,
      "lab": 5459,
      "lard": 5460,
      "mut": 5461,
      "ng": 5462,
      "ping": 5463,
      "pat": 5464,
      "pul": 5465,
      "rish": 5466,
      "vt": 5467,
      "won": 5468,
      "yond": 5469,
      "zation": 5470,
      "zet": 5471,
      "}}": 5472,
      "’.": 5473,
      "info": 5474,
      "insig": 5475,
      "theme": 5476,
      "enbaum": 5477,
      "isy": 5478,
      "ishi": 5479,
      "edu": 5480,
      "room": 5481,
      "chard": 5482,
      "aster": 5483,
      "stress": 5484,
      "status": 5485,
      "stationary": 5486,
      "entail": 5487,
      "mpson": 5488,
      "ceiv": 5489,
      "siz": 5490,
      "sical": 5491,
      "exhi": 5492,
      "unlabeled": 5493,
      "worse": 5494,
      "promin": 5495,
      "condi": 5496,
      "connot": 5497,
      "usual": 5498,
      "quar": 5499,
      "angular": 5500,
      "mathematic": 5501,
      "adverbs": 5502,
      "achi": 5503,
      "irth": 5504,
      "formul": 5505,
      "formants": 5506,
      "access": 5507,
      "shtein": 5508,
      "Intell": 5509,
      "door": 5510,
      "ami": 5511,
      "ams": 5512,
      "wood": 5513,
      "logic": 5514,
      "notions": 5515,
      "generic": 5516,
      "generalization": 5517,
      "whites": 5518,
      "identity": 5519,
      "dating": 5520,
      "impact": 5521,
      "arily": 5522,
      "arious": 5523,
      "tries": 5524,
      "opinion": 5525,
      "overview": 5526,
      "overfit": 5527,
      "creates": 5528,
      "alizations": 5529,
      "subwords": 5530,
      "box": 5531,
      "production": 5532,
      "differenti": 5533,
      "dependence": 5534,
      "semantically": 5535,
      "central": 5536,
      "variants": 5537,
      "expand": 5538,
      "expla": 5539,
      "explan": 5540,
      "affix": 5541,
      "interactions": 5542,
      "interaction": 5543,
      "price": 5544,
      "Project": 5545,
      "Heaps": 5546,
      "1974": 5547,
      "382": 5548,
      "fail": 5549,
      "favor": 5550,
      "ieve": 5551,
      "Stre": 5552,
      "wavefile": 5553,
      "annotations": 5554,
      "ICML": 5555,
      "sively": 5556,
      "Rosen": 5557,
      "derivatives": 5558,
      "TRA": 5559,
      "divide": 5560,
      "measured": 5561,
      "ISO": 5562,
      "stacked": 5563,
      "increasing": 5564,
      "mitive": 5565,
      "intell": 5566,
      "reasons": 5567,
      "filled": 5568,
      "Add": 5569,
      "1959": 5570,
      "FFECT": 5571,
      "Origin": 5572,
      "encodings": 5573,
      "categorization": 5574,
      "induce": 5575,
      "connections": 5576,
      "connectives": 5577,
      "simplifying": 5578,
      "piano": 5579,
      "RAMMAR": 5580,
      "leads": 5581,
      "precedence": 5582,
      "pieces": 5583,
      "1990s": 5584,
      "laws": 5585,
      "identify": 5586,
      "weekend": 5587,
      "Step": 5588,
      "Henderson": 5589,
      "influen": 5590,
      "scientific": 5591,
      "MAP": 5592,
      "easy": 5593,
      "repeatedly": 5594,
      "medical": 5595,
      "leaving": 5596,
      "Turk": 5597,
      "consonant": 5598,
      "strongly": 5599,
      "approximate": 5600,
      "SuperBPE": 5601,
      "Regression": 5602,
      "jointly": 5603,
      "Kudo": 5604,
      "nasal": 5605,
      "reconstruct": 5606,
      "cepstrum": 5607,
      "Impro": 5608,
      "Systems": 5609,
      "support": 5610,
      "popular": 5611,
      "GloVe": 5612,
      "Question": 5613,
      "YOU": 5614,
      "restricted": 5615,
      "half": 5616,
      "communication": 5617,
      "Probabil": 5618,
      "Radford": 5619,
      "teacher": 5620,
      "Thompson": 5621,
      "Frequency": 5622,
      "opposite": 5623,
      "EMANTIC": 5624,
      "Introduction": 5625,
      "Levenshtein": 5626,
      "Weston": 5627,
      "expected": 5628,
      "systematic": 5629,
      "EXICONS": 5630,
      "dummy": 5631,
      "whitespace": 5632,
      "RAMMARS": 5633,
      "(?": 5634,
      "03": 5635,
      "317": 5636,
      "400": 5637,
      "524": 5638,
      "AF": 5639,
      "Ab": 5640,
      "Bu": 5641,
      "Bre": 5642,
      "Bas": 5643,
      "BOS": 5644,
      "Ca": 5645,
      "Categor": 5646,
      "DD": 5647,
      "DI": 5648,
      "DFT": 5649,
      "Davi": 5650,
      "Ear": 5651,
      "Gure": 5652,
      "Hor": 5653,
      "Hand": 5654,
      "LA": 5655,
      "Loc": 5656,
      "Lew": 5657,
      "Llama": 5658,
      "M1": 5659,
      "RI": 5660,
      "Rand": 5661,
      "SC": 5662,
      "SG": 5663,
      "SL": 5664,
      "Sun": 5665,
      "Set": 5666,
      "Spor": 5667,
      "TER": 5668,
      "Tuning": 5669,
      "Various": 5670,
      "WE": 5671,
      "Wat": 5672,
      "Wie": 5673,
      "Youn": 5674,
      "aks": 5675,
      "ahead": 5676,
      "bt": 5677,
      "cs": 5678,
      "cit": 5679,
      "dget": 5680,
      "ele": 5681,
      "flo": 5682,
      "gence": 5683,
      "miti": 5684,
      "nice": 5685,
      "null": 5686,
      "sal": 5687,
      "sad": 5688,
      "ske": 5689,
      "spend": 5690,
      "twe": 5691,
      "vary": 5692,
      "y4": 5693,
      "reli": 5694,
      "realized": 5695,
      "alge": 5696,
      "selecting": 5697,
      "arith": 5698,
      "today": 5699,
      "ass": 5700,
      "asks": 5701,
      "lell": 5702,
      "entry": 5703,
      "determ": 5704,
      "cement": 5705,
      "heur": 5706,
      "igning": 5707,
      "unigrams": 5708,
      "reser": 5709,
      "projection": 5710,
      "contribution": 5711,
      "concer": 5712,
      "area": 5713,
      "veral": 5714,
      "fear": 5715,
      "owski": 5716,
      "maint": 5717,
      "nei": 5718,
      "achieve": 5719,
      "hilo": 5720,
      "parsed": 5721,
      "formulation": 5722,
      "president": 5723,
      "track": 5724,
      "shall": 5725,
      "Inference": 5726,
      "Instit": 5727,
      "distributed": 5728,
      "vie": 5729,
      "tokenize": 5730,
      "tokenizers": 5731,
      "strument": 5732,
      "intensity": 5733,
      "pher": 5734,
      "phras": 5735,
      "phenom": 5736,
      "Three": 5737,
      "notion": 5738,
      "finds": 5739,
      "somewhat": 5740,
      "TITU": 5741,
      "Encoding": 5742,
      "eva": 5743,
      "arian": 5744,
      "127": 5745,
      "applies": 5746,
      "237": 5747,
      "Annot": 5748,
      "150": 5749,
      "lingu": 5750,
      "subjective": 5751,
      "else": 5752,
      "obj": 5753,
      "NNS": 5754,
      "knowing": 5755,
      "Conne": 5756,
      "passing": 5757,
      "processes": 5758,
      "causes": 5759,
      "cognitive": 5760,
      "wav": 5761,
      "possibly": 5762,
      "recognizer": 5763,
      "defines": 5764,
      "leted": 5765,
      "merge": 5766,
      "famous": 5767,
      "pointed": 5768,
      "404": 5769,
      "zebra": 5770,
      "learns": 5771,
      "distributions": 5772,
      "treebank": 5773,
      "chinese": 5774,
      "Stu": 5775,
      "330": 5776,
      "336": 5777,
      "Liang": 5778,
      "Transition": 5779,
      "choices": 5780,
      "multiplication": 5781,
      "Ney": 5782,
      "factual": 5783,
      "2018a": 5784,
      "monoling": 5785,
      "282": 5786,
      "ITY": 5787,
      "products": 5788,
      "Bell": 5789,
      "operations": 5790,
      "separately": 5791,
      "treated": 5792,
      "emphas": 5793,
      "ISCO": 5794,
      "studies": 5795,
      "plan": 5796,
      "shif": 5797,
      "SemEval": 5798,
      "Zhu": 5799,
      "Marcus": 5800,
      "saying": 5801,
      "considering": 5802,
      "improved": 5803,
      "URSE": 5804,
      "thinking": 5805,
      "digit": 5806,
      "carry": 5807,
      "optimization": 5808,
      "ROLE": 5809,
      "TreeBank": 5810,
      "risk": 5811,
      "comparison": 5812,
      "determiner": 5813,
      "tune": 5814,
      "encoura": 5815,
      "ADJ": 5816,
      "sketched": 5817,
      "summarized": 5818,
      "minimal": 5819,
      "movies": 5820,
      "easily": 5821,
      "independently": 5822,
      "removed": 5823,
      "Class": 5824,
      "marking": 5825,
      "carefully": 5826,
      "experiments": 5827,
      "script": 5828,
      "decide": 5829,
      "community": 5830,
      "LoRA": 5831,
      "definitions": 5832,
      "McClell": 5833,
      "advantages": 5834,
      "ONSTITU": 5835,
      "harmful": 5836,
      "VENTS": 5837,
      "describes": 5838,
      "bracket": 5839,
      "Representation": 5840,
      "fragment": 5841,
      "averaged": 5842,
      "premises": 5843,
      "toxicity": 5844,
      "weakly": 5845,
      "rett": 5846,
      "universal": 5847,
      "Baldridge": 5848,
      "Martin": 5849,
      "prosodic": 5850,
      "Furthermore": 5851,
      "Donald": 5852,
      "estimates": 5853,
      "schemes": 5854,
      "toolkit": 5855,
      "LASS": 5856,
      "RANSFORMERS": 5857,
      "branching": 5858,
      "ENTIMENT": 5859,
      "Feedforward": 5860,
      "vych": 5861,
      "exhibit": 5862,
      "Intelligence": 5863,
      "influenced": 5864,
      "Probabilistic": 5865,
      "Gurevych": 5866,
      "Wiebe": 5867,
      "tweets": 5868,
      "algebra": 5869,
      "heuristic": 5870,
      "maintain": 5871,
      "monolingual": 5872,
      "ISCOURSE": 5873,
      "McClelland": 5874,
      "ONSTITUENCY": 5875,
      "(+|": 5876,
      ")—": 5877,
      "+)": 5878,
      ".]": 5879,
      "216": 5880,
      "2nd": 5881,
      "521": 5882,
      "84": 5883,
      "Bor": 5884,
      "Can": 5885,
      "Gree": 5886,
      "IB": 5887,
      "Kir": 5888,
      "MLE": 5889,
      "Nor": 5890,
      "NING": 5891,
      "OMP": 5892,
      "Pen": 5893,
      "Qi": 5894,
      "Rn": 5895,
      "Si": 5896,
      "Sut": 5897,
      "Sap": 5898,
      "Str": 5899,
      "Simm": 5900,
      "Ul": 5901,
      "Us": 5902,
      "Vil": 5903,
      "Yang": 5904,
      "Zi": 5905,
      "bar": 5906,
      "bold": 5907,
      "c1": 5908,
      "cr": 5909,
      "cking": 5910,
      "dro": 5911,
      "e3": 5912,
      "ej": 5913,
      "ehn": 5914,
      "flexi": 5915,
      "game": 5916,
      "gain": 5917,
      "ib": 5918,
      "ims": 5919,
      "ja": 5920,
      "ju": 5921,
      "nically": 5922,
      "rup": 5923,
      "rates": 5924,
      "s0": 5925,
      "slots": 5926,
      "y0": 5927,
      "ys": 5928,
      "z1": 5929,
      "z2": 5930,
      "|’": 5931,
      "’+": 5932,
      "thy": 5933,
      "ini": 5934,
      "inations": 5935,
      "antic": 5936,
      "ortho": 5937,
      "ordered": 5938,
      "sely": 5939,
      "several": 5940,
      "artificial": 5941,
      "ede": 5942,
      "rock": 5943,
      "chitect": 5944,
      "assis": 5945,
      "det": 5946,
      "depart": 5947,
      "force": 5948,
      "raph": 5949,
      "six": 5950,
      "wea": 5951,
      "moti": 5952,
      "urger": 5953,
      "icious": 5954,
      "unci": 5955,
      "lobert": 5956,
      "agraph": 5957,
      "uli": 5958,
      "conclu": 5959,
      "tices": 5960,
      "verted": 5961,
      "libr": 5962,
      "soon": 5963,
      "mach": 5964,
      "adv": 5965,
      "keley": 5966,
      "poor": 5967,
      "poli": 5968,
      "him": 5969,
      "paragraph": 5970,
      "allum": 5971,
      "olving": 5972,
      "ots": 5973,
      "preposition": 5974,
      "textbook": 5975,
      "tradition": 5976,
      "discount": 5977,
      "izations": 5978,
      "izenbaum": 5979,
      "oney": 5980,
      "valence": 5981,
      "ended": 5982,
      "ayaraj": 5983,
      "genre": 5984,
      "phon": 5985,
      "representational": 5986,
      "Thurs": 5987,
      "Weizenbaum": 5988,
      "noisy": 5989,
      "finally": 5990,
      "occup": 5991,
      "uster": 5992,
      "dessert": 5993,
      "ishing": 5994,
      "1024": 5995,
      "Reference": 5996,
      "Recas": 5997,
      "fold": 5998,
      "115": 5999,
      "critical": 6000,
      "INSTR": 6001,
      "alizes": 6002,
      "simpler": 6003,
      "anything": 6004,
      "introducing": 6005,
      "matics": 6006,
      "biLSTM": 6007,
      "omas": 6008,
      "seeing": 6009,
      "prising": 6010,
      "variance": 6011,
      "encoderdecoder": 6012,
      "expan": 6013,
      "Segment": 6014,
      "specifies": 6015,
      "similarly": 6016,
      "ToBI": 6017,
      "satis": 6018,
      "Who": 6019,
      "1981": 6020,
      "1971": 6021,
      "fool": 6022,
      "horse": 6023,
      "1963": 6024,
      "distributional": 6025,
      "ovsky": 6026,
      "lengths": 6027,
      "2017b": 6028,
      "pronunci": 6029,
      "associations": 6030,
      "grounding": 6031,
      "Computing": 6032,
      "Computation": 6033,
      "viewed": 6034,
      "2018b": 6035,
      "Align": 6036,
      "chooses": 6037,
      "362": 6038,
      "allowed": 6039,
      "575": 6040,
      "House": 6041,
      "Paralle": 6042,
      "AMR": 6043,
      "Pretraining": 6044,
      "surprising": 6045,
      "says": 6046,
      "initiative": 6047,
      "harms": 6048,
      "reasonable": 6049,
      "files": 6050,
      "PARSE": 6051,
      "aware": 6052,
      "1953": 6053,
      "HMMs": 6054,
      "cutive": 6055,
      "digiti": 6056,
      "utterances": 6057,
      "Collobert": 6058,
      "reflect": 6059,
      "frequently": 6060,
      "pretty": 6061,
      "CRFs": 6062,
      "Quanti": 6063,
      "breaking": 6064,
      "Huang": 6065,
      "activity": 6066,
      "Entities": 6067,
      "Deter": 6068,
      "341": 6069,
      "purpose": 6070,
      "SEP": 6071,
      "immediate": 6072,
      "summarize": 6073,
      "Berkeley": 6074,
      "Elman": 6075,
      "Perplexity": 6076,
      "NIST": 6077,
      "clearly": 6078,
      "Richard": 6079,
      "bootstrapping": 6080,
      "deciding": 6081,
      "Turney": 6082,
      "shifted": 6083,
      "McCallum": 6084,
      "conceptual": 6085,
      "Charles": 6086,
      "Eugen": 6087,
      "composed": 6088,
      "Extracting": 6089,
      "attached": 6090,
      "Yuan": 6091,
      "client": 6092,
      "stereotypical": 6093,
      "ontology": 6094,
      "rolled": 6095,
      "Similarity": 6096,
      "Walden": 6097,
      "Contextual": 6098,
      "CMU": 6099,
      "parenthe": 6100,
      "Koehn": 6101,
      "Tagging": 6102,
      "facto": 6103,
      "literature": 6104,
      "synonyms": 6105,
      "transcribed": 6106,
      "averaging": 6107,
      "Ethayaraj": 6108,
      "perfectly": 6109,
      "viron": 6110,
      "fricatives": 6111,
      "essentially": 6112,
      "Cognitive": 6113,
      "Prompt": 6114,
      "Algorithms": 6115,
      "circu": 6116,
      "glottal": 6117,
      "simultaneous": 6118,
      "1950s": 6119,
      "IJCAI": 6120,
      "Sundheim": 6121,
      "metaphor": 6122,
      "correlates": 6123,
      "Klatt": 6124,
      "harmonic": 6125,
      "Latent": 6126,
      "vertex": 6127,
      "double": 6128,
      "GRAM": 6129,
      "Identi": 6130,
      "style": 6131,
      "Softmax": 6132,
      "conditions": 6133,
      "mathematics": 6134,
      "overfitting": 6135,
      "Lewis": 6136,
      "determine": 6137,
      "LASSIF": 6138,
      "Thursday": 6139,
      "Recasens": 6140,
      "Ethayarajh": 6141,
      "\".": 6142,
      "\"\\": 6143,
      "%)": 6144,
      "()": 6145,
      "-.": 6146,
      "219": 6147,
      "319": 6148,
      "3000": 6149,
      "327": 6150,
      "414": 6151,
      "4000": 6152,
      "455": 6153,
      "76": 6154,
      "87": 6155,
      "89": 6156,
      "Ash": 6157,
      "ATI": 6158,
      "Bat": 6159,
      "Cal": 6160,
      "Cur": 6161,
      "CACM": 6162,
      "DPO": 6163,
      "Eis": 6164,
      "EAR": 6165,
      "F2": 6166,
      "FA": 6167,
      "FO": 6168,
      "Fri": 6169,
      "Fine": 6170,
      "Hin": 6171,
      "Hist": 6172,
      "IMD": 6173,
      "Imag": 6174,
      "Ja": 6175,
      "KL": 6176,
      "KV": 6177,
      "LIGN": 6178,
      "Lots": 6179,
      "Mel": 6180,
      "MLM": 6181,
      "Num": 6182,
      "Ok": 6183,
      "Ox": 6184,
      "Pop": 6185,
      "Power": 6186,
      "Rat": 6187,
      "RVQ": 6188,
      "SN": 6189,
      "Sing": 6190,
      "SIG": 6191,
      "Terry": 6192,
      "UMMAR": 6193,
      "VO": 6194,
      "Vin": 6195,
      "Vill": 6196,
      "Wr": 6197,
      "YS": 6198,
      "bes": 6199,
      "cin": 6200,
      "culation": 6201,
      "d1": 6202,
      "dark": 6203,
      "eating": 6204,
      "gun": 6205,
      "hat": 6206,
      "ification": 6207,
      "kh": 6208,
      "lt": 6209,
      "lating": 6210,
      "nic": 6211,
      "nik": 6212,
      "ő": 6213,
      "rhetorical": 6214,
      "sw": 6215,
      "slow": 6216,
      "switch": 6217,
      "uu": 6218,
      "uper": 6219,
      "udes": 6220,
      "wN": 6221,
      "wild": 6222,
      "x0": 6223,
      "xW": 6224,
      "xili": 6225,
      "yu": 6226,
      "yan": 6227,
      "αi": 6228,
      "πref": 6229,
      "iner": 6230,
      "instein": 6231,
      "instrument": 6232,
      "inverted": 6233,
      "rer": 6234,
      "recomm": 6235,
      "recording": 6236,
      "onset": 6237,
      "onastic": 6238,
      "environ": 6239,
      "orge": 6240,
      "attit": 6241,
      "semi": 6242,
      "secutive": 6243,
      "isol": 6244,
      "isting": 6245,
      "tional": 6246,
      "arra": 6247,
      "ardi": 6248,
      "assert": 6249,
      "assess": 6250,
      "coordin": 6251,
      "stressed": 6252,
      "enter": 6253,
      "fortunately": 6254,
      "sides": 6255,
      "exerci": 6256,
      "bear": 6257,
      "beli": 6258,
      "unlikely": 6259,
      "proportion": 6260,
      "ulated": 6261,
      "const": 6262,
      "construct": 6263,
      "consecutive": 6264,
      "Their": 6265,
      "diverse": 6266,
      "terrible": 6267,
      "riv": 6268,
      "sole": 6269,
      "mative": 6270,
      "1955": 6271,
      "posed": 6272,
      "ache": 6273,
      "hia": 6274,
      "embed": 6275,
      "olf": 6276,
      "oles": 6277,
      "suit": 6278,
      "acces": 6279,
      "acci": 6280,
      "cance": 6281,
      "pread": 6282,
      "prepositions": 6283,
      "teeth": 6284,
      "viation": 6285,
      "correlation": 6286,
      "women": 6287,
      "ends": 6288,
      "fiers": 6289,
      "notice": 6290,
      "transformation": 6291,
      "updates": 6292,
      "updating": 6293,
      "Ent": 6294,
      "121": 6295,
      "123": 6296,
      "125": 6297,
      "trip": 6298,
      "Code": 6299,
      "114": 6300,
      "nets": 6301,
      "worked": 6302,
      "Anaphora": 6303,
      "spired": 6304,
      "ANCE": 6305,
      "wards": 6306,
      "elds": 6307,
      "obtain": 6308,
      "prices": 6309,
      "250": 6310,
      "ART": 6311,
      "structural": 6312,
      "translated": 6313,
      "Seattle": 6314,
      "specifying": 6315,
      "particle": 6316,
      "primitive": 6317,
      "Proso": 6318,
      "whereas": 6319,
      "Exam": 6320,
      "normally": 6321,
      "Develop": 6322,
      "kesman": 6323,
      "straight": 6324,
      "graphic": 6325,
      "269": 6326,
      "importance": 6327,
      "handwritten": 6328,
      "Neg": 6329,
      "Compute": 6330,
      "custo": 6331,
      "looks": 6332,
      "changing": 6333,
      "changed": 6334,
      "equal": 6335,
      "zeros": 6336,
      "TRANS": 6337,
      "underlying": 6338,
      "301": 6339,
      "divided": 6340,
      "linearly": 6341,
      "solved": 6342,
      "began": 6343,
      "Paris": 6344,
      "ship": 6345,
      "Meas": 6346,
      "waveforms": 6347,
      "482": 6348,
      "484": 6349,
      "McDonald": 6350,
      "Bias": 6351,
      "chains": 6352,
      "convention": 6353,
      "appearing": 6354,
      "focuses": 6355,
      "Adv": 6356,
      "Corpor": 6357,
      "joy": 6358,
      "1952": 6359,
      "1956": 6360,
      "lectric": 6361,
      "studying": 6362,
      "carri": 6363,
      "Direct": 6364,
      "AAAB": 6365,
      "guess": 6366,
      "optimize": 6367,
      "closely": 6368,
      "Both": 6369,
      "Boston": 6370,
      "researchers": 6371,
      "pleonastic": 6372,
      "constraint": 6373,
      "Query": 6374,
      "deterministic": 6375,
      "spokesman": 6376,
      "TimeBank": 6377,
      "tuned": 6378,
      "difficul": 6379,
      "implicitly": 6380,
      "ENCODER": 6381,
      "captured": 6382,
      "dinner": 6383,
      "converting": 6384,
      "Tokenization": 6385,
      "broken": 6386,
      "involve": 6387,
      "anchors": 6388,
      "strict": 6389,
      "significance": 6390,
      "Linking": 6391,
      "Multilingual": 6392,
      "Again": 6393,
      "modal": 6394,
      "solutions": 6395,
      "Normalize": 6396,
      "optional": 6397,
      "EDUs": 6398,
      "Chambers": 6399,
      "Walker": 6400,
      "anueva": 6401,
      "discriminative": 6402,
      "Representing": 6403,
      "Willi": 6404,
      "sorts": 6405,
      "deletion": 6406,
      "Brad": 6407,
      "premise": 6408,
      "Value": 6409,
      "eliminate": 6410,
      "Dynamic": 6411,
      "Knowledge": 6412,
      "decades": 6413,
      "ignore": 6414,
      "transcripts": 6415,
      "bench": 6416,
      "alphabe": 6417,
      "attributes": 6418,
      "challeng": 6419,
      "Alternatively": 6420,
      "attempt": 6421,
      "accomplish": 6422,
      "beautifully": 6423,
      "persuasive": 6424,
      "Towards": 6425,
      "patient": 6426,
      "pioneered": 6427,
      "XYZ": 6428,
      "govern": 6429,
      "connotations": 6430,
      "Street": 6431,
      "Improving": 6432,
      "Category": 6433,
      "Random": 6434,
      "neither": 6435,
      "phenomena": 6436,
      "Greek": 6437,
      "Simmons": 6438,
      "weather": 6439,
      "machines": 6440,
      "LIGNMENT": 6441,
      "Lotsabucks": 6442,
      "Oxford": 6443,
      "UMMARY": 6444,
      "Villanueva": 6445,
      "exercise": 6446,
      "**": 6447,
      ".).": 6448,
      "338": 6449,
      "340": 6450,
      "412": 6451,
      "417": 6452,
      "457": 6453,
      "53": 6454,
      "522": 6455,
      "540": 6456,
      "527": 6457,
      "74": 6458,
      "94": 6459,
      "=-": 6460,
      "Bl": 6461,
      "Bran": 6462,
      "Call": 6463,
      "Del": 6464,
      "Dav": 6465,
      "Emp": 6466,
      "EACL": 6467,
      "Fk": 6468,
      "Fant": 6469,
      "Gon": 6470,
      "HO": 6471,
      "Hir": 6472,
      "Hutch": 6473,
      "Ir": 6474,
      "ITION": 6475,
      "IPA": 6476,
      "J3": 6477,
      "King": 6478,
      "Kap": 6479,
      "Kum": 6480,
      "Kim": 6481,
      "Land": 6482,
      "Lou": 6483,
      "Mr": 6484,
      "My": 6485,
      "NG": 6486,
      "Nc": 6487,
      "Ny": 6488,
      "Night": 6489,
      "NAR": 6490,
      "OP": 6491,
      "OST": 6492,
      "PH": 6493,
      "PN": 6494,
      "Pust": 6495,
      "Pred": 6496,
      "Pond": 6497,
      "Rd": 6498,
      "Rob": 6499,
      "Russian": 6500,
      "Spo": 6501,
      "Sound": 6502,
      "SVD": 6503,
      "U1": 6504,
      "U2": 6505,
      "UD": 6506,
      "UCT": 6507,
      "UMENT": 6508,
      "Vas": 6509,
      "b1": 6510,
      "bk": 6511,
      "bag": 6512,
      "cut": 6513,
      "cke": 6514,
      "cult": 6515,
      "cros": 6516,
      "dB": 6517,
      "dre": 6518,
      "dol": 6519,
      "eper": 6520,
      "fre": 6521,
      "fence": 6522,
      "gent": 6523,
      "hen": 6524,
      "hra": 6525,
      "hund": 6526,
      "ln": 6527,
      "lson": 6528,
      "lens": 6529,
      "mal": 6530,
      "mation": 6531,
      "nur": 6532,
      "natur": 6533,
      "osi": 6534,
      "pure": 6535,
      "sity": 6536,
      "stim": 6537,
      "sites": 6538,
      "tft": 6539,
      "tens": 6540,
      "z3": 6541,
      "za": 6542,
      "zat": 6543,
      "}.": 6544,
      "inen": 6545,
      "infin": 6546,
      "indefinite": 6547,
      "incoming": 6548,
      "insic": 6549,
      "infinite": 6550,
      "anks": 6551,
      "announ": 6552,
      "relies": 6553,
      "encoun": 6554,
      "ord": 6555,
      "ordan": 6556,
      "ero": 6557,
      "isk": 6558,
      "isto": 6559,
      "arXiv": 6560,
      "ester": 6561,
      "lemma": 6562,
      "covered": 6563,
      "stren": 6564,
      "dea": 6565,
      "demo": 6566,
      "device": 6567,
      "decomposition": 6568,
      "deeper": 6569,
      "forget": 6570,
      "race": 6571,
      "hej": 6572,
      "member": 6573,
      "become": 6574,
      "beyond": 6575,
      "unc": 6576,
      "unpleasant": 6577,
      "logram": 6578,
      "loud": 6579,
      "conference": 6580,
      "consum": 6581,
      "conside": 6582,
      "dient": 6583,
      "apo": 6584,
      "verde": 6585,
      "vertices": 6586,
      "feld": 6587,
      "delicious": 6588,
      "useum": 6589,
      "mathematical": 6590,
      "ctionist": 6591,
      "atever": 6592,
      "parap": 6593,
      "emis": 6594,
      "embo": 6595,
      "perspe": 6596,
      "trig": 6597,
      "trinsic": 6598,
      "iring": 6599,
      "compet": 6600,
      "complexity": 6601,
      "pretokenization": 6602,
      "tracting": 6603,
      "share": 6604,
      "shallow": 6605,
      "disap": 6606,
      "ferent": 6607,
      "ham": 6608,
      "cient": 6609,
      "presents": 6610,
      "Thomas": 6611,
      "Chan": 6612,
      "transduction": 6613,
      "whatever": 6614,
      "relational": 6615,
      "someone": 6616,
      "105": 6617,
      "Review": 6618,
      "Reich": 6619,
      "differs": 6620,
      "Forward": 6621,
      "eves": 6622,
      "acknow": 6623,
      "matter": 6624,
      "berts": 6625,
      "124": 6626,
      "ONNOT": 6627,
      "Core": 6628,
      "apping": 6629,
      "238": 6630,
      "serves": 6631,
      "Ann": 6632,
      "Ange": 6633,
      "attab": 6634,
      "licity": 6635,
      "Unlike": 6636,
      "Unfortunately": 6637,
      "simplicity": 6638,
      "bought": 6639,
      "istant": 6640,
      "dependencies": 6641,
      "163": 6642,
      "Cont": 6643,
      "Conditional": 6644,
      "countries": 6645,
      "biased": 6646,
      "backpointer": 6647,
      "backtrace": 6648,
      "calculation": 6649,
      "prof": 6650,
      "252": 6651,
      "posses": 6652,
      "ARE": 6653,
      "interpre": 6654,
      "negatives": 6655,
      "turing": 6656,
      "throughout": 6657,
      "effor": 6658,
      "NPH": 6659,
      "whenever": 6660,
      "ECODER": 6661,
      "Itali": 6662,
      "ELMo": 6663,
      "Ext": 6664,
      "rows": 6665,
      "getting": 6666,
      "1962": 6667,
      "1964": 6668,
      "performs": 6669,
      "performed": 6670,
      "401": 6671,
      "goes": 6672,
      "Stand": 6673,
      "Libri": 6674,
      "hypon": 6675,
      "chool": 6676,
      "Artificial": 6677,
      "Architect": 6678,
      "Unix": 6679,
      "Schmid": 6680,
      "closure": 6681,
      "handle": 6682,
      "associate": 6683,
      "phoneme": 6684,
      "previously": 6685,
      "sourcing": 6686,
      "capital": 6687,
      "capturing": 6688,
      "constitute": 6689,
      "cript": 6690,
      "ICS": 6691,
      "offers": 6692,
      "Roman": 6693,
      "Rough": 6694,
      "Roberts": 6695,
      "veness": 6696,
      "pronounced": 6697,
      "retrieve": 6698,
      "stock": 6699,
      "Joker": 6700,
      "376": 6701,
      "typical": 6702,
      "specifically": 6703,
      "574": 6704,
      "577": 6705,
      "studied": 6706,
      "Semi": 6707,
      "airflow": 6708,
      "combines": 6709,
      "returned": 6710,
      "developing": 6711,
      "Mean": 6712,
      "surface": 6713,
      "instanti": 6714,
      "personality": 6715,
      "harder": 6716,
      "integer": 6717,
      "cellent": 6718,
      "McKe": 6719,
      "niak": 6720,
      "basis": 6721,
      "technology": 6722,
      "filler": 6723,
      "finetune": 6724,
      "PART": 6725,
      "propose": 6726,
      "Advanced": 6727,
      "1951": 6728,
      "keys": 6729,
      "Audio": 6730,
      "NAF": 6731,
      "cues": 6732,
      "fluency": 6733,
      "Sometimes": 6734,
      "repeats": 6735,
      "simplify": 6736,
      "Arg0": 6737,
      "Argument": 6738,
      "ColBERT": 6739,
      "continuation": 6740,
      "editing": 6741,
      "Post": 6742,
      "pipe": 6743,
      "RAINING": 6744,
      "Suz": 6745,
      "clauses": 6746,
      "claims": 6747,
      "uniform": 6748,
      "posts": 6749,
      "largest": 6750,
      "chrP": 6751,
      "chrR": 6752,
      "parallelogram": 6753,
      "arrive": 6754,
      "happened": 6755,
      "identifying": 6756,
      "MLR": 6757,
      "weeks": 6758,
      "conditioning": 6759,
      "converted": 6760,
      "concatenation": 6761,
      "syllab": 6762,
      "quantized": 6763,
      "interpretability": 6764,
      "Dozat": 6765,
      "indexing": 6766,
      "dental": 6767,
      "Generation": 6768,
      "covering": 6769,
      "configurations": 6770,
      "caret": 6771,
      "experiment": 6772,
      "yyyy": 6773,
      "Charniak": 6774,
      "Levin": 6775,
      "WSD": 6776,
      "gazet": 6777,
      "modified": 6778,
      "Regular": 6779,
      "Denis": 6780,
      "meetings": 6781,
      "clitic": 6782,
      "titles": 6783,
      "ür": 6784,
      "replacement": 6785,
      "Backus": 6786,
      "psychology": 6787,
      "naive": 6788,
      "Stol": 6789,
      "hypern": 6790,
      "Holding": 6791,
      "Morpho": 6792,
      "Typology": 6793,
      "insertion": 6794,
      "Stacked": 6795,
      "Science": 6796,
      "engineering": 6797,
      "children": 6798,
      "xxxxxx": 6799,
      "microphone": 6800,
      "virt": 6801,
      "collapsing": 6802,
      "chatbot": 6803,
      "adjusted": 6804,
      "adequ": 6805,
      "regions": 6806,
      "publicly": 6807,
      "Khattab": 6808,
      "divergence": 6809,
      "Events": 6810,
      "Taylor": 6811,
      "invented": 6812,
      "July": 6813,
      "Psychology": 6814,
      "Sampling": 6815,
      "TAGG": 6816,
      "principle": 6817,
      "privacy": 6818,
      "Pitts": 6819,
      "articulatory": 6820,
      "reporting": 6821,
      "Efficient": 6822,
      "Gildea": 6823,
      "bruja": 6824,
      "ceived": 6825,
      "explanation": 6826,
      "TRAINING": 6827,
      "skever": 6828,
      "Sutskever": 6829,
      "ejovsky": 6830,
      "assist": 6831,
      "INSTRUMENT": 6832,
      "simultaneously": 6833,
      "Hindi": 6834,
      "Imagine": 6835,
      "upervised": 6836,
      "recommend": 6837,
      "belief": 6838,
      "embedded": 6839,
      "customer": 6840,
      "carriers": 6841,
      "Bradley": 6842,
      "Davis": 6843,
      "Hirsch": 6844,
      "Kaplan": 6845,
      "Landauer": 6846,
      "Pustejovsky": 6847,
      "Predic": 6848,
      "naturally": 6849,
      "streng": 6850,
      "considered": 6851,
      "ONNOTATION": 6852,
      "Italian": 6853,
      "McKeown": 6854,
      "(\"": 6855,
      "(.": 6856,
      "(\\": 6857,
      ")[": 6858,
      "*\"": 6859,
      "110": 6860,
      "2b": 6861,
      "211": 6862,
      "350": 6863,
      "3pm": 6864,
      "411": 6865,
      "5am": 6866,
      "=>": 6867,
      ">,": 6868,
      "Acoustic": 6869,
      "ATING": 6870,
      "BD": 6871,
      "BL": 6872,
      "Ben": 6873,
      "Bour": 6874,
      "Bef": 6875,
      "Brid": 6876,
      "CA": 6877,
      "Coc": 6878,
      "CAT": 6879,
      "Dent": 6880,
      "DATE": 6881,
      "ETS": 6882,
      "Fo": 6883,
      "Fr": 6884,
      "GH": 6885,
      "Gar": 6886,
      "Hend": 6887,
      "Hay": 6888,
      "IM": 6889,
      "Jim": 6890,
      "James": 6891,
      "JMLR": 6892,
      "Kal": 6893,
      "Kore": 6894,
      "Litt": 6895,
      "Mu": 6896,
      "Mech": 6897,
      "Masked": 6898,
      "MASK": 6899,
      "Oc": 6900,
      "PK": 6901,
      "PV": 6902,
      "POR": 6903,
      "PCM": 6904,
      "Ren": 6905,
      "Rank": 6906,
      "Roles": 6907,
      "Ts": 6908,
      "Ter": 6909,
      "Typ": 6910,
      "UP": 6911,
      "Vis": 6912,
      "WC": 6913,
      "Wall": 6914,
      "XP": 6915,
      "YP": 6916,
      "Yo": 6917,
      "Ŷ": 6918,
      "Za": 6919,
      "[...": 6920,
      "athe": 6921,
      "afield": 6922,
      "bing": 6923,
      "bach": 6924,
      "backs": 6925,
      "birth": 6926,
      "cue": 6927,
      "crawl": 6928,
      "dw": 6929,
      "duration": 6930,
      "eg": 6931,
      "ek": 6932,
      "ell": 6933,
      "eight": 6934,
      "eager": 6935,
      "fusion": 6936,
      "gr": 6937,
      "kov": 6938,
      "lsson": 6939,
      "mit": 6940,
      "nut": 6941,
      "o1": 6942,
      "ominal": 6943,
      "pite": 6944,
      "rzi": 6945,
      "t2": 6946,
      "tro": 6947,
      "tables": 6948,
      "ui": 6949,
      "vast": 6950,
      "ws": 6951,
      "x6": 6952,
      "y5": 6953,
      "zh": 6954,
      "zk": 6955,
      "inferences": 6956,
      "incorrectly": 6957,
      "inspired": 6958,
      "anas": 6959,
      "reverse": 6960,
      "rewrite": 6961,
      "orically": 6962,
      "orient": 6963,
      "alone": 6964,
      "atmo": 6965,
      "sell": 6966,
      "seeds": 6967,
      "arous": 6968,
      "edman": 6969,
      "rov": 6970,
      "rounding": 6971,
      "chron": 6972,
      "story": 6973,
      "entering": 6974,
      "mposi": 6975,
      "sil": 6976,
      "excer": 6977,
      "existing": 6978,
      "moment": 6979,
      "belie": 6980,
      "ić": 6981,
      "ič": 6982,
      "unembedding": 6983,
      "resh": 6984,
      "agues": 6985,
      "prog": 6986,
      "iling": 6987,
      "ilies": 6988,
      "ilton": 6989,
      "condu": 6990,
      "conversion": 6991,
      "wordpiece": 6992,
      "abbre": 6993,
      "ape": 6994,
      "quire": 6995,
      "lier": 6996,
      "lide": 6997,
      "life": 6998,
      "fee": 6999,
      "riven": 7000,
      "peak": 7001,
      "mak": 7002,
      "neur": 7003,
      "ada": 7004,
      "percept": 7005,
      "trust": 7006,
      "irre": 7007,
      "preser": 7008,
      "presence": 7009,
      "preci": 7010,
      "outside": 7011,
      "teer": 7012,
      "shaw": 7013,
      "mentally": 7014,
      "entially": 7015,
      "hamb": 7016,
      "woman": 7017,
      "strate": 7018,
      "log2": 7019,
      "genres": 7020,
      "gences": 7021,
      "gency": 7022,
      "gendered": 7023,
      "Chris": 7024,
      "102": 7025,
      "TIMIT": 7026,
      "TIVE": 7027,
      "evo": 7028,
      "curve": 7029,
      "belong": 7030,
      "berry": 7031,
      "ounds": 7032,
      "126": 7033,
      "workers": 7034,
      "INT": 7035,
      "caus": 7036,
      "tagsets": 7037,
      "subtracting": 7038,
      "ANK": 7039,
      "ORT": 7040,
      "Engine": 7041,
      "mostly": 7042,
      "Constit": 7043,
      "Conv1": 7044,
      "english": 7045,
      "biological": 7046,
      "backpropag": 7047,
      "NLI": 7048,
      "chart": 7049,
      "interact": 7050,
      "TIONAL": 7051,
      "standardi": 7052,
      "turning": 7053,
      "tempor": 7054,
      "Heafield": 7055,
      "1985": 7056,
      "color": 7057,
      "collected": 7058,
      "occurred": 7059,
      "defining": 7060,
      "foot": 7061,
      "fares": 7062,
      "faction": 7063,
      "Defin": 7064,
      "1961": 7065,
      "405": 7066,
      "407": 7067,
      "ŷk": 7068,
      "States": 7069,
      "Stede": 7070,
      "predictor": 7071,
      "332": 7072,
      "333": 7073,
      "wanted": 7074,
      "chose": 7075,
      "Schank": 7076,
      "ambiguities": 7077,
      "Transcription": 7078,
      "scales": 7079,
      "annotator": 7080,
      "shapes": 7081,
      "views": 7082,
      "396": 7083,
      "398": 7084,
      "Roth": 7085,
      "pped": 7086,
      "284": 7087,
      "rick": 7088,
      "derives": 7089,
      "553": 7090,
      "released": 7091,
      "locations": 7092,
      "kins": 7093,
      "predictable": 7094,
      "479": 7095,
      "ATT": 7096,
      "plate": 7097,
      "Symposi": 7098,
      "combinations": 7099,
      "signals": 7100,
      "Prep": 7101,
      "Pretrained": 7102,
      "Preferences": 7103,
      "Gradient": 7104,
      "initialized": 7105,
      "technical": 7106,
      "technically": 7107,
      "filtered": 7108,
      "fillers": 7109,
      "axr": 7110,
      "Byte": 7111,
      "goals": 7112,
      "IRL": 7113,
      "THE": 7114,
      "truth": 7115,
      "connective": 7116,
      "guide": 7117,
      "Carlson": 7118,
      "pending": 7119,
      "costs": 7120,
      "Bootstra": 7121,
      "demonstrated": 7122,
      "missing": 7123,
      "resourced": 7124,
      "Resour": 7125,
      "Resolution": 7126,
      "Resnik": 7127,
      "neighbors": 7128,
      "encodes": 7129,
      "extracts": 7130,
      "Henry": 7131,
      "involved": 7132,
      "influence": 7133,
      "syllables": 7134,
      "minimizing": 7135,
      "confir": 7136,
      "1992a": 7137,
      "mechanisms": 7138,
      "Riedel": 7139,
      "Agirre": 7140,
      "Dependencies": 7141,
      "famili": 7142,
      "families": 7143,
      "BIOES": 7144,
      "Loss": 7145,
      "published": 7146,
      "danau": 7147,
      "descriptions": 7148,
      "modifier": 7149,
      "LayerNorm": 7150,
      "scen": 7151,
      "sufficiently": 7152,
      "successful": 7153,
      "significantly": 7154,
      "SUBJ": 7155,
      "psycholog": 7156,
      "fairly": 7157,
      "suppor": 7158,
      "authors": 7159,
      "Baum": 7160,
      "CFO": 7161,
      "LDC": 7162,
      "ethical": 7163,
      "parent": 7164,
      "insertions": 7165,
      "transcribing": 7166,
      "colleagues": 7167,
      "perceptrons": 7168,
      "People": 7169,
      "Sciences": 7170,
      "1960s": 7171,
      "diagrams": 7172,
      "VALUE": 7173,
      "VALUATION": 7174,
      "suffixes": 7175,
      "decrease": 7176,
      "dominance": 7177,
      "violence": 7178,
      "Questions": 7179,
      "informative": 7180,
      "rounded": 7181,
      "PROTO": 7182,
      "burg": 7183,
      "essential": 7184,
      "amplified": 7185,
      "benef": 7186,
      "cnegi": 7187,
      "music": 7188,
      "alphabet": 7189,
      "attribute": 7190,
      "challenge": 7191,
      "Follow": 7192,
      "ASKED": 7193,
      "Blodget": 7194,
      "Hajishi": 7195,
      "Hajič": 7196,
      "Ramshaw": 7197,
      "conjunctions": 7198,
      "Gaussian": 7199,
      "Osgood": 7200,
      "Continu": 7201,
      "spelling": 7202,
      "geometric": 7203,
      "surprised": 7204,
      "Bahdanau": 7205,
      "Volume": 7206,
      "singletons": 7207,
      "integrated": 7208,
      "Claude": 7209,
      "Durrett": 7210,
      "entailment": 7211,
      "achieved": 7212,
      "favorite": 7213,
      "intelligence": 7214,
      "Turkish": 7215,
      "Basic": 7216,
      "Horse": 7217,
      "concern": 7218,
      "Institute": 7219,
      "phrasal": 7220,
      "ADJP": 7221,
      "OMPUTE": 7222,
      "flexible": 7223,
      "jump": 7224,
      "library": 7225,
      "occupations": 7226,
      "Alignment": 7227,
      "Richardson": 7228,
      "parentheses": 7229,
      "circuit": 7230,
      "Asher": 7231,
      "Batman": 7232,
      "switching": 7233,
      "attitudes": 7234,
      "solely": 7235,
      "Negative": 7236,
      "difficulty": 7237,
      "Williams": 7238,
      "alphabetic": 7239,
      "Brants": 7240,
      "nurse": 7241,
      "acknowled": 7242,
      "LibriSpeech": 7243,
      "Suzgun": 7244,
      "strength": 7245,
      "Bourlard": 7246,
      "Before": 7247,
      "Littman": 7248,
      "Mechan": 7249,
      "Visu": 7250,
      "[...]": 7251,
      "arousal": 7252,
      "believe": 7253,
      "Constitu": 7254,
      "Symposium": 7255,
      "familiar": 7256,
      "Blodgett": 7257,
      "Hajishirzi": 7258,
      "!!": 7259,
      "(-": 7260,
      "(=": 7261,
      ")(": 7262,
      ")?": 7263,
      "/\\": 7264,
      "/⌧": 7265,
      "1F": 7266,
      "214": 7267,
      "3rd": 7268,
      "4th": 7269,
      "415": 7270,
      "426": 7271,
      "429": 7272,
      "525": 7273,
      "528": 7274,
      "8F": 7275,
      "?)": 7276,
      "Av": 7277,
      "Augment": 7278,
      "BE": 7279,
      "BY": 7280,
      "Boo": 7281,
      "Bel": 7282,
      "C3": 7283,
      "Cl": 7284,
      "Cy": 7285,
      "Cre": 7286,
      "Che": 7287,
      "CIS": 7288,
      "CORE": 7289,
      "Dor": 7290,
      "Das": 7291,
      "Dra": 7292,
      "Dum": 7293,
      "During": 7294,
      "Dah": 7295,
      "Dod": 7296,
      "DET": 7297,
      "EAM": 7298,
      "Find": 7299,
      "Gru": 7300,
      "Gao": 7301,
      "Gender": 7302,
      "Grish": 7303,
      "Hid": 7304,
      "HEL": 7305,
      "Hung": 7306,
      "IA": 7307,
      "Jr": 7308,
      "Just": 7309,
      "Kas": 7310,
      "Kita": 7311,
      "Katz": 7312,
      "L0": 7313,
      "Lak": 7314,
      "Lef": 7315,
      "MI": 7316,
      "Mi": 7317,
      "Mt": 7318,
      "Mal": 7319,
      "Mout": 7320,
      "Mining": 7321,
      "MOS": 7322,
      "Mai": 7323,
      "Mich": 7324,
      "National": 7325,
      "Og": 7326,
      "Pas": 7327,
      "PCTC": 7328,
      "Qn": 7329,
      "RP": 7330,
      "Rach": 7331,
      "Rate": 7332,
      "Raj": 7333,
      "Rash": 7334,
      "SD": 7335,
      "SR": 7336,
      "Sor": 7337,
      "Ser": 7338,
      "Sign": 7339,
      "SBJ": 7340,
      "SRL": 7341,
      "Tu": 7342,
      "Tal": 7343,
      "TMP": 7344,
      "Ur": 7345,
      "Usu": 7346,
      "Wx": 7347,
      "Witten": 7348,
      "XR": 7349,
      "Xx": 7350,
      "Y9": 7351,
      "Yao": 7352,
      "Zip": 7353,
      "]]": 7354,
      "adi": 7355,
      "away": 7356,
      "bin": 7357,
      "battle": 7358,
      "c2": 7359,
      "cro": 7360,
      "cra": 7361,
      "cru": 7362,
      "cache": 7363,
      "df": 7364,
      "eties": 7365,
      "f5": 7366,
      "fk": 7367,
      "got": 7368,
      "gone": 7369,
      "hl": 7370,
      "han": 7371,
      "hts": 7372,
      "hind": 7373,
      "hLi": 7374,
      "ior": 7375,
      "idel": 7376,
      "ible": 7377,
      "kr": 7378,
      "kal": 7379,
      "ked": 7380,
      "mk": 7381,
      "menti": 7382,
      "mbedding": 7383,
      "money": 7384,
      "nap": 7385,
      "none": 7386,
      "nie": 7387,
      "ose": 7388,
      "ome": 7389,
      "oph": 7390,
      "plo": 7391,
      "qN": 7392,
      "qP": 7393,
      "shel": 7394,
      "sNAF": 7395,
      "twi": 7396,
      "uy": 7397,
      "ulo": 7398,
      "util": 7399,
      "vot": 7400,
      "viterbi": 7401,
      "wan": 7402,
      "yal": 7403,
      "zb": 7404,
      "zon": 7405,
      "̀r": 7406,
      "̀re": 7407,
      "”|": 7408,
      "inv": 7409,
      "inative": 7410,
      "inson": 7411,
      "inner": 7412,
      "anis": 7413,
      "rection": 7414,
      "realization": 7415,
      "replic": 7416,
      "onal": 7417,
      "enab": 7418,
      "eness": 7419,
      "tially": 7420,
      "titions": 7421,
      "orage": 7422,
      "erian": 7423,
      "semb": 7424,
      "semis": 7425,
      "arative": 7426,
      "ests": 7427,
      "tos": 7428,
      "cher": 7429,
      "assi": 7430,
      "cop": 7431,
      "cohes": 7432,
      "storing": 7433,
      "storage": 7434,
      "degre": 7435,
      "itas": 7436,
      "forth": 7437,
      "utinative": 7438,
      "height": 7439,
      "heart": 7440,
      "exec": 7441,
      "excellent": 7442,
      "mode": 7443,
      "moder": 7444,
      "urant": 7445,
      "unrestricted": 7446,
      "worth": 7447,
      "working": 7448,
      "lost": 7449,
      "resol": 7450,
      "aga": 7451,
      "agon": 7452,
      "agog": 7453,
      "agement": 7454,
      "aggl": 7455,
      "208": 7456,
      "etuning": 7457,
      "ilit": 7458,
      "ulus": 7459,
      "contribut": 7460,
      "usage": 7461,
      "usiness": 7462,
      "aber": 7463,
      "aper": 7464,
      "qui": 7465,
      "ria": 7466,
      "rie": 7467,
      "soc": 7468,
      "uming": 7469,
      "peaks": 7470,
      "math": 7471,
      "ader": 7472,
      "1948": 7473,
      "party": 7474,
      "partition": 7475,
      "eman": 7476,
      "putting": 7477,
      "pers": 7478,
      "permut": 7479,
      "tran": 7480,
      "prepend": 7481,
      "textual": 7482,
      "Initi": 7483,
      "ferential": 7484,
      "symp": 7485,
      "manip": 7486,
      "001": 7487,
      "lowest": 7488,
      "log10": 7489,
      "logies": 7490,
      "Wei": 7491,
      "Weld": 7492,
      "Weisch": 7493,
      "taurant": 7494,
      "typo": 7495,
      "mmas": 7496,
      "estab": 7497,
      "Cheng": 7498,
      "nose": 7499,
      "notic": 7500,
      "nothing": 7501,
      "103": 7502,
      "End": 7503,
      "thos": 7504,
      "coref": 7505,
      "arises": 7506,
      "triangle": 7507,
      "Cosine": 7508,
      "timate": 7509,
      "118": 7510,
      "workshop": 7511,
      "ACK": 7512,
      "Any": 7513,
      "atten": 7514,
      "cret": 7515,
      "133": 7516,
      "155": 7517,
      "157": 7518,
      "15th": 7519,
      "substring": 7520,
      "subjectivity": 7521,
      "Unit": 7522,
      "Unsupervised": 7523,
      "ORITH": 7524,
      "akh": 7525,
      "matically": 7526,
      "headword": 7527,
      "verbal": 7528,
      "162": 7529,
      "Convers": 7530,
      "newline": 7531,
      "254": 7532,
      "255": 7533,
      "differently": 7534,
      "bigger": 7535,
      "varieties": 7536,
      "ALS": 7537,
      "aff": 7538,
      "artz": 7539,
      "ignoring": 7540,
      "safe": 7541,
      "Expres": 7542,
      "386": 7543,
      "ŷi": 7544,
      "essage": 7545,
      "topics": 7546,
      "334": 7547,
      "265": 7548,
      "267": 7549,
      "hybrid": 7550,
      "addres": 7551,
      "Assign": 7552,
      "Aristo": 7553,
      "analyze": 7554,
      "iterative": 7555,
      "Schuster": 7556,
      "2017a": 7557,
      "closing": 7558,
      "capable": 7559,
      "393": 7560,
      "characterized": 7561,
      "360": 7562,
      "365": 7563,
      "home": 7564,
      "hope": 7565,
      "stores": 7566,
      "stood": 7567,
      "understood": 7568,
      "275": 7569,
      "Therefore": 7570,
      "Beth": 7571,
      "cosines": 7572,
      "release": 7573,
      "directions": 7574,
      "PPORT": 7575,
      "days": 7576,
      "separator": 7577,
      "feedback": 7578,
      "locally": 7579,
      "579": 7580,
      "472": 7581,
      "477": 7582,
      "Parts": 7583,
      "intuitive": 7584,
      "Finetuning": 7585,
      "Symbol": 7586,
      "windows": 7587,
      "Distributed": 7588,
      "incrementally": 7589,
      "runs": 7590,
      "Marshall": 7591,
      "intuitions": 7592,
      "LSsNAF": 7593,
      "Preposition": 7594,
      "survi": 7595,
      "surrounding": 7596,
      "considers": 7597,
      "listed": 7598,
      "451": 7599,
      "453": 7600,
      "coustics": 7601,
      "))]": 7602,
      "improves": 7603,
      "improving": 7604,
      "visit": 7605,
      "filters": 7606,
      "focusing": 7607,
      "segmented": 7608,
      "awes": 7609,
      "awful": 7610,
      "359": 7611,
      "joined": 7612,
      "playing": 7613,
      "shortened": 7614,
      "induced": 7615,
      "odor": 7616,
      "UNT": 7617,
      "Position": 7618,
      "ROOT": 7619,
      "richlet": 7620,
      "Treebanks": 7621,
      "towards": 7622,
      "constrained": 7623,
      "referents": 7624,
      "Praat": 7625,
      "arrives": 7626,
      "nearly": 7627,
      "determined": 7628,
      "Restaurant": 7629,
      "organizations": 7630,
      "TimeML": 7631,
      "ought": 7632,
      "purch": 7633,
      "periods": 7634,
      "blank": 7635,
      "banana": 7636,
      "bananas": 7637,
      "concatenate": 7638,
      "concatenating": 7639,
      "567": 7640,
      "ratings": 7641,
      "involving": 7642,
      "Mathematical": 7643,
      "gestone": 7644,
      "huber": 7645,
      "coverage": 7646,
      "MultiHead": 7647,
      "salience": 7648,
      "rewards": 7649,
      "maximizes": 7650,
      "participant": 7651,
      "emotional": 7652,
      "Structural": 7653,
      "Center": 7654,
      "casion": 7655,
      "Syntax": 7656,
      "Charact": 7657,
      "approximation": 7658,
      "Template": 7659,
      "perception": 7660,
      "scra": 7661,
      "keeps": 7662,
      "keeping": 7663,
      "Scherer": 7664,
      "arcs": 7665,
      "dogs": 7666,
      "analogy": 7667,
      "rolling": 7668,
      "accented": 7669,
      "majority": 7670,
      "Intu": 7671,
      "Interpo": 7672,
      "restaurants": 7673,
      "Role1": 7674,
      "Petrov": 7675,
      "Phonetic": 7676,
      "Optim": 7677,
      "Voice": 7678,
      "denoted": 7679,
      "hyperparameters": 7680,
      "Prince": 7681,
      "facilit": 7682,
      "collections": 7683,
      "pedagog": 7684,
      "calculated": 7685,
      "voicing": 7686,
      "conveniently": 7687,
      "George": 7688,
      "Schwartz": 7689,
      "Herdan": 7690,
      "depth": 7691,
      "inforcement": 7692,
      "Formal": 7693,
      "Goodman": 7694,
      "arrows": 7695,
      "polyse": 7696,
      "Cognition": 7697,
      "essays": 7698,
      "dialects": 7699,
      "Assuming": 7700,
      "Shift": 7701,
      "intervals": 7702,
      "ProperNoun": 7703,
      "VDLSsNAF": 7704,
      "theorem": 7705,
      "Bloom": 7706,
      "RDF": 7707,
      "1970s": 7708,
      ">>>": 7709,
      "palate": 7710,
      "animal": 7711,
      "discovery": 7712,
      "Datase": 7713,
      "Hamming": 7714,
      "Mercer": 7715,
      "Equation": 7716,
      "Patterns": 7717,
      "inflectional": 7718,
      "Hannun": 7719,
      "prominence": 7720,
      "formula": 7721,
      "differentiation": 7722,
      "Rosenfeld": 7723,
      "Handbook": 7724,
      "Sports": 7725,
      "achievement": 7726,
      "shifti": 7727,
      "bracketed": 7728,
      "traditionally": 7729,
      "expansion": 7730,
      "PARSEVAL": 7731,
      "Quantization": 7732,
      "Determin": 7733,
      "History": 7734,
      "Number": 7735,
      "Singh": 7736,
      "xiliary": 7737,
      "constant": 7738,
      "Entropy": 7739,
      "straightforward": 7740,
      "government": 7741,
      "Spoken": 7742,
      "drew": 7743,
      "dollar": 7744,
      "Schmidhuber": 7745,
      "ICSLP": 7746,
      "gazetteer": 7747,
      "Stolcke": 7748,
      "Bridgestone": 7749,
      "backslas": 7750,
      "Constituency": 7751,
      "Dahl": 7752,
      "Grishman": 7753,
      "Hungarian": 7754,
      "Kitaev": 7755,
      "Left": 7756,
      "Mouton": 7757,
      "Rashkin": 7758,
      "Usually": 7759,
      "shelf": 7760,
      "twice": 7761,
      "semisupervised": 7762,
      "degrees": 7763,
      "execution": 7764,
      "agglutinative": 7765,
      "prepended": 7766,
      "Weischedel": 7767,
      "Aristotle": 7768,
      ")/": 7769,
      ")}": 7770,
      "-\\": 7771,
      "2π": 7772,
      "212": 7773,
      "223": 7774,
      "213": 7775,
      "322": 7776,
      "355": 7777,
      "346": 7778,
      "425": 7779,
      "4pm": 7780,
      "544": 7781,
      "5pm": 7782,
      "6pm": 7783,
      "72": 7784,
      "8B": 7785,
      "::": 7786,
      "Act": 7787,
      "Aust": 7788,
      "AIS": 7789,
      "Agency": 7790,
      "Amode": 7791,
      "B3": 7792,
      "BU": 7793,
      "Bur": 7794,
      "Bet": 7795,
      "Bil": 7796,
      "Bul": 7797,
      "Bol": 7798,
      "Bir": 7799,
      "Base": 7800,
      "Bam": 7801,
      "Bob": 7802,
      "Binary": 7803,
      "Broad": 7804,
      "Bender": 7805,
      "Brock": 7806,
      "Cr": 7807,
      "Cong": 7808,
      "Craw": 7809,
      "DA": 7810,
      "Din": 7811,
      "DAM": 7812,
      "EF": 7813,
      "Euc": 7814,
      "Fa": 7815,
      "Fan": 7816,
      "Fre": 7817,
      "Function": 7818,
      "Feng": 7819,
      "Found": 7820,
      "Fiel": 7821,
      "GP": 7822,
      "GPE": 7823,
      "Gordan": 7824,
      "Hy": 7825,
      "Han": 7826,
      "Hal": 7827,
      "His": 7828,
      "Hof": 7829,
      "Has": 7830,
      "Hun": 7831,
      "Hall": 7832,
      "Haw": 7833,
      "Hashi": 7834,
      "Hatz": 7835,
      "HYP": 7836,
      "JA": 7837,
      "Jef": 7838,
      "Jia": 7839,
      "K9": 7840,
      "Ken": 7841,
      "Kart": 7842,
      "Kane": 7843,
      "LC": 7844,
      "Lon": 7845,
      "Las": 7846,
      "Lit": 7847,
      "Lang": 7848,
      "LAR": 7849,
      "Lower": 7850,
      "Ms": 7851,
      "Med": 7852,
      "Mil": 7853,
      "MOD": 7854,
      "MODELS": 7855,
      "Nar": 7856,
      "Nem": 7857,
      "Nav": 7858,
      "NRC": 7859,
      "Nenk": 7860,
      "NSUBJ": 7861,
      "OM": 7862,
      "OW": 7863,
      "OY": 7864,
      "OUS": 7865,
      "P0": 7866,
      "Pat": 7867,
      "Pres": 7868,
      "Pren": 7869,
      "Peng": 7870,
      "Park": 7871,
      "Person": 7872,
      "Philo": 7873,
      "QP": 7874,
      "Rup": 7875,
      "Raf": 7876,
      "Rog": 7877,
      "Rah": 7878,
      "Ryan": 7879,
      "S1": 7880,
      "Sø": 7881,
      "Sen": 7882,
      "SON": 7883,
      "Sho": 7884,
      "SFT": 7885,
      "Smoo": 7886,
      "Sriv": 7887,
      "TD": 7888,
      "TV": 7889,
      "Tc": 7890,
      "Tes": 7891,
      "Tet": 7892,
      "Tout": 7893,
      "Tai": 7894,
      "TTER": 7895,
      "UCE": 7896,
      "Umed": 7897,
      "Vie": 7898,
      "VIS": 7899,
      "Wn": 7900,
      "Woods": 7901,
      "Wolf": 7902,
      "XER": 7903,
      "Yet": 7904,
      "[|": 7905,
      "a0": 7906,
      "ake": 7907,
      "b2": 7908,
      "bage": 7909,
      "ball": 7910,
      "bands": 7911,
      "cil": 7912,
      "cers": 7913,
      "dJ": 7914,
      "ez": 7915,
      "egy": 7916,
      "electric": 7917,
      "fn": 7918,
      "fashi": 7919,
      "faster": 7920,
      "gg": 7921,
      "gan": 7922,
      "gap": 7923,
      "gers": 7924,
      "gran": 7925,
      "games": 7926,
      "hz": 7927,
      "hage": 7928,
      "hom": 7929,
      "ii": 7930,
      "iding": 7931,
      "jan": 7932,
      "lu": 7933,
      "lad": 7934,
      "ml": 7935,
      "mus": 7936,
      "nes": 7937,
      "ned": 7938,
      "nsub": 7939,
      "oy": 7940,
      "ology": 7941,
      "p1": 7942,
      "pes": 7943,
      "pet": 7944,
      "rum": 7945,
      "rne": 7946,
      "sg": 7947,
      "send": 7948,
      "spher": 7949,
      "spread": 7950,
      "school": 7951,
      "tren": 7952,
      "ufel": 7953,
      "volution": 7954,
      "wall": 7955,
      "wani": 7956,
      "wberry": 7957,
      "yers": 7958,
      "yals": 7959,
      "zak": 7960,
      "|)": 7961,
      "́r": 7962,
      "αw": 7963,
      "‘‘": 7964,
      "−(": 7965,
      "ﺑﺮ": 7966,
      "thro": 7967,
      "inach": 7968,
      "incoherent": 7969,
      "intrinsic": 7970,
      "ancial": 7971,
      "ancient": 7972,
      "rea": 7973,
      "reci": 7974,
      "recti": 7975,
      "thesa": 7976,
      "enbach": 7977,
      "titive": 7978,
      "orado": 7979,
      "era": 7980,
      "alth": 7981,
      "aling": 7982,
      "alas": 7983,
      "alia": 7984,
      "ingual": 7985,
      "atom": 7986,
      "seat": 7987,
      "isons": 7988,
      "offee": 7989,
      "arp": 7990,
      "arrang": 7991,
      "tov": 7992,
      "tomor": 7993,
      "chef": 7994,
      "asta": 7995,
      "coda": 7996,
      "stories": 7997,
      "deix": 7998,
      "deviation": 7999
    },
    "merges": [
      [
        "t",
        "h"
      ],
      [
        "i",
        "n"
      ],
      [
        "a",
        "n"
      ],
      [
        "r",
        "e"
      ],
      [
        "o",
        "n"
      ],
      [
        "th",
        "e"
      ],
      [
        "e",
        "n"
      ],
      [
        "t",
        "i"
      ],
      [
        "o",
        "r"
      ],
      [
        "e",
        "r"
      ],
      [
        "a",
        "l"
      ],
      [
        "in",
        "g"
      ],
      [
        "a",
        "t"
      ],
      [
        "s",
        "e"
      ],
      [
        "i",
        "s"
      ],
      [
        "o",
        "f"
      ],
      [
        "ti",
        "on"
      ],
      [
        "a",
        "r"
      ],
      [
        "e",
        "s"
      ],
      [
        "t",
        "o"
      ],
      [
        "e",
        "d"
      ],
      [
        "an",
        "d"
      ],
      [
        "r",
        "o"
      ],
      [
        "c",
        "h"
      ],
      [
        "a",
        "s"
      ],
      [
        "l",
        "e"
      ],
      [
        "c",
        "o"
      ],
      [
        "s",
        "t"
      ],
      [
        "en",
        "t"
      ],
      [
        "d",
        "e"
      ],
      [
        "i",
        "t"
      ],
      [
        "f",
        "or"
      ],
      [
        "a",
        "tion"
      ],
      [
        "u",
        "t"
      ],
      [
        "m",
        "p"
      ],
      [
        "c",
        "e"
      ],
      [
        "r",
        "a"
      ],
      [
        "s",
        "i"
      ],
      [
        "h",
        "e"
      ],
      [
        "v",
        "e"
      ],
      [
        "w",
        "e"
      ],
      [
        "c",
        "t"
      ],
      [
        "e",
        "x"
      ],
      [
        "m",
        "o"
      ],
      [
        "m",
        "e"
      ],
      [
        "i",
        "g"
      ],
      [
        "b",
        "e"
      ],
      [
        "u",
        "r"
      ],
      [
        "i",
        "c"
      ],
      [
        "u",
        "n"
      ],
      [
        "w",
        "or"
      ],
      [
        "l",
        "o"
      ],
      [
        "l",
        "y"
      ],
      [
        "re",
        "s"
      ],
      [
        "a",
        "g"
      ],
      [
        "p",
        "ro"
      ],
      [
        "2",
        "0"
      ],
      [
        "th",
        "at"
      ],
      [
        "e",
        "t"
      ],
      [
        "i",
        "l"
      ],
      [
        "u",
        "l"
      ],
      [
        "c",
        "on"
      ],
      [
        "i",
        "th"
      ],
      [
        "u",
        "s"
      ],
      [
        "T",
        "he"
      ],
      [
        "wor",
        "d"
      ],
      [
        "d",
        "i"
      ],
      [
        "ti",
        "c"
      ],
      [
        "a",
        "b"
      ],
      [
        "a",
        "re"
      ],
      [
        "a",
        "p"
      ],
      [
        "t",
        "er"
      ],
      [
        "q",
        "u"
      ],
      [
        "v",
        "er"
      ],
      [
        "l",
        "i"
      ],
      [
        "f",
        "e"
      ],
      [
        "r",
        "i"
      ],
      [
        "s",
        "o"
      ],
      [
        "de",
        "l"
      ],
      [
        "u",
        "m"
      ],
      [
        "u",
        "se"
      ],
      [
        "ex",
        "t"
      ],
      [
        "an",
        "g"
      ],
      [
        "p",
        "e"
      ],
      [
        "w",
        "ith"
      ],
      [
        "o",
        "w"
      ],
      [
        "m",
        "a"
      ],
      [
        "mo",
        "del"
      ],
      [
        "n",
        "e"
      ],
      [
        "a",
        "d"
      ],
      [
        "k",
        "e"
      ],
      [
        "1",
        "9"
      ],
      [
        "p",
        "o"
      ],
      [
        "c",
        "tion"
      ],
      [
        "b",
        "y"
      ],
      [
        "re",
        "n"
      ],
      [
        "a",
        "ch"
      ],
      [
        "at",
        "e"
      ],
      [
        "l",
        "a"
      ],
      [
        "h",
        "i"
      ],
      [
        "p",
        "ar"
      ],
      [
        "ro",
        "m"
      ],
      [
        "e",
        "m"
      ],
      [
        "ag",
        "e"
      ],
      [
        "f",
        "rom"
      ],
      [
        "u",
        "re"
      ],
      [
        "al",
        "l"
      ],
      [
        "o",
        "l"
      ],
      [
        "d",
        "er"
      ],
      [
        "ig",
        "h"
      ],
      [
        "o",
        "t"
      ],
      [
        "ang",
        "u"
      ],
      [
        "d",
        "ing"
      ],
      [
        "p",
        "ut"
      ],
      [
        "p",
        "er"
      ],
      [
        "t",
        "r"
      ],
      [
        "it",
        "y"
      ],
      [
        "i",
        "r"
      ],
      [
        "co",
        "mp"
      ],
      [
        "for",
        "m"
      ],
      [
        "an",
        "s"
      ],
      [
        "t",
        "s"
      ],
      [
        "a",
        "mp"
      ],
      [
        "c",
        "l"
      ],
      [
        "s",
        "u"
      ],
      [
        "a",
        "se"
      ],
      [
        "a",
        "c"
      ],
      [
        ")",
        "."
      ],
      [
        ".",
        ","
      ],
      [
        "c",
        "an"
      ],
      [
        "p",
        "res"
      ],
      [
        "p",
        "re"
      ],
      [
        "en",
        "ce"
      ],
      [
        "l",
        "angu"
      ],
      [
        "t",
        "ext"
      ],
      [
        "o",
        "ut"
      ],
      [
        "t",
        "e"
      ],
      [
        "t",
        "ra"
      ],
      [
        "c",
        "es"
      ],
      [
        "s",
        "h"
      ],
      [
        "k",
        "en"
      ],
      [
        "the",
        "r"
      ],
      [
        "l",
        "l"
      ],
      [
        "I",
        "n"
      ],
      [
        "li",
        "ke"
      ],
      [
        "ti",
        "ve"
      ],
      [
        "d",
        "is"
      ],
      [
        "s",
        "pe"
      ],
      [
        "e",
        "ach"
      ],
      [
        "m",
        "ent"
      ],
      [
        "fe",
        "ren"
      ],
      [
        "th",
        "is"
      ],
      [
        "d",
        "o"
      ],
      [
        "v",
        "i"
      ],
      [
        "en",
        "ti"
      ],
      [
        "i",
        "z"
      ],
      [
        "s",
        "y"
      ],
      [
        "d",
        "u"
      ],
      [
        "h",
        "a"
      ],
      [
        "pro",
        "b"
      ],
      [
        "word",
        "s"
      ],
      [
        "on",
        "e"
      ],
      [
        "c",
        "or"
      ],
      [
        "ation",
        "s"
      ],
      [
        "langu",
        "age"
      ],
      [
        "tra",
        "in"
      ],
      [
        "er",
        "s"
      ],
      [
        "v",
        "al"
      ],
      [
        "in",
        "e"
      ],
      [
        "to",
        "ken"
      ],
      [
        "g",
        "ra"
      ],
      [
        "a",
        "m"
      ],
      [
        "20",
        "1"
      ],
      [
        "m",
        "an"
      ],
      [
        "0",
        "0"
      ],
      [
        "F",
        "ig"
      ],
      [
        "c",
        "i"
      ],
      [
        "w",
        "o"
      ],
      [
        ")",
        ","
      ],
      [
        "si",
        "on"
      ],
      [
        "w",
        "hi"
      ],
      [
        "s",
        "ing"
      ],
      [
        "en",
        "d"
      ],
      [
        "st",
        "r"
      ],
      [
        "ct",
        "or"
      ],
      [
        "a",
        "y"
      ],
      [
        "pres",
        "ent"
      ],
      [
        "igh",
        "t"
      ],
      [
        "in",
        "t"
      ],
      [
        "lo",
        "w"
      ],
      [
        "al",
        "ly"
      ],
      [
        "ex",
        "amp"
      ],
      [
        "lo",
        "g"
      ],
      [
        "ab",
        "il"
      ],
      [
        "g",
        "en"
      ],
      [
        "E",
        "R"
      ],
      [
        "k",
        "s"
      ],
      [
        "p",
        "h"
      ],
      [
        "whi",
        "ch"
      ],
      [
        "re",
        "present"
      ],
      [
        "T",
        "h"
      ],
      [
        "f",
        "i"
      ],
      [
        "cl",
        "as"
      ],
      [
        "at",
        "ed"
      ],
      [
        "ha",
        "ve"
      ],
      [
        "g",
        "e"
      ],
      [
        "W",
        "e"
      ],
      [
        "comp",
        "ut"
      ],
      [
        "prob",
        "abil"
      ],
      [
        "t",
        "a"
      ],
      [
        "val",
        "u"
      ],
      [
        "b",
        "ed"
      ],
      [
        "t",
        "y"
      ],
      [
        "ve",
        "ctor"
      ],
      [
        "n",
        "ot"
      ],
      [
        "s",
        "ent"
      ],
      [
        "in",
        "put"
      ],
      [
        "se",
        "t"
      ],
      [
        "an",
        "t"
      ],
      [
        "ar",
        "d"
      ],
      [
        "m",
        "m"
      ],
      [
        "e",
        "ch"
      ],
      [
        "model",
        "s"
      ],
      [
        "es",
        "t"
      ],
      [
        "en",
        "tion"
      ],
      [
        "f",
        "ic"
      ],
      [
        "C",
        "h"
      ],
      [
        "n",
        "o"
      ],
      [
        "f",
        "in"
      ],
      [
        "tr",
        "ans"
      ],
      [
        "o",
        "o"
      ],
      [
        "gen",
        "er"
      ],
      [
        "examp",
        "le"
      ],
      [
        "g",
        "n"
      ],
      [
        "g",
        "or"
      ],
      [
        "w",
        "h"
      ],
      [
        "i",
        "v"
      ],
      [
        "i",
        "d"
      ],
      [
        "il",
        "l"
      ],
      [
        "m",
        "s"
      ],
      [
        "o",
        "c"
      ],
      [
        "t",
        "wo"
      ],
      [
        "20",
        "0"
      ],
      [
        "l",
        "es"
      ],
      [
        "se",
        "qu"
      ],
      [
        "la",
        "y"
      ],
      [
        "train",
        "ing"
      ],
      [
        "o",
        "ur"
      ],
      [
        "bed",
        "ding"
      ],
      [
        "d",
        "at"
      ],
      [
        "re",
        "l"
      ],
      [
        "co",
        "der"
      ],
      [
        "b",
        "ase"
      ],
      [
        "a",
        "ct"
      ],
      [
        "c",
        "all"
      ],
      [
        "use",
        "d"
      ],
      [
        "u",
        "g"
      ],
      [
        "s",
        "s"
      ],
      [
        "feren",
        "ce"
      ],
      [
        "n",
        "ing"
      ],
      [
        "out",
        "put"
      ],
      [
        "o",
        "ther"
      ],
      [
        "c",
        "y"
      ],
      [
        "so",
        "me"
      ],
      [
        "u",
        "st"
      ],
      [
        "st",
        "em"
      ],
      [
        "ar",
        "y"
      ],
      [
        ".",
        "."
      ],
      [
        "d",
        "es"
      ],
      [
        "em",
        "bedding"
      ],
      [
        "se",
        "s"
      ],
      [
        "t",
        "as"
      ],
      [
        "gor",
        "ith"
      ],
      [
        "sh",
        "ow"
      ],
      [
        "a",
        "me"
      ],
      [
        "m",
        "in"
      ],
      [
        "is",
        "h"
      ],
      [
        "ur",
        "al"
      ],
      [
        "um",
        "ent"
      ],
      [
        "1",
        "0"
      ],
      [
        "be",
        "t"
      ],
      [
        "T",
        "I"
      ],
      [
        "it",
        "s"
      ],
      [
        "u",
        "p"
      ],
      [
        "mo",
        "re"
      ],
      [
        "sy",
        "stem"
      ],
      [
        "al",
        "gorith"
      ],
      [
        "spe",
        "ech"
      ],
      [
        "re",
        "e"
      ],
      [
        "p",
        "a"
      ],
      [
        "se",
        "d"
      ],
      [
        "base",
        "d"
      ],
      [
        "19",
        "9"
      ],
      [
        "probabil",
        "ity"
      ],
      [
        "a",
        "tive"
      ],
      [
        "E",
        "n"
      ],
      [
        "ug",
        "h"
      ],
      [
        "th",
        "o"
      ],
      [
        "R",
        "e"
      ],
      [
        "d",
        "s"
      ],
      [
        "con",
        "text"
      ],
      [
        "di",
        "f"
      ],
      [
        "F",
        "or"
      ],
      [
        "h",
        "as"
      ],
      [
        "the",
        "se"
      ],
      [
        "ti",
        "es"
      ],
      [
        "e",
        "v"
      ],
      [
        "is",
        "tic"
      ],
      [
        "ac",
        "k"
      ],
      [
        "c",
        "ur"
      ],
      [
        "le",
        "ar"
      ],
      [
        "be",
        "l"
      ],
      [
        "ir",
        "st"
      ],
      [
        "co",
        "re"
      ],
      [
        "st",
        "e"
      ],
      [
        "sequ",
        "ence"
      ],
      [
        "fe",
        "at"
      ],
      [
        "i",
        "m"
      ],
      [
        "Fig",
        "ure"
      ],
      [
        "u",
        "res"
      ],
      [
        "m",
        "at"
      ],
      [
        "en",
        "cy"
      ],
      [
        "e",
        "ct"
      ],
      [
        "b",
        "er"
      ],
      [
        "u",
        "tion"
      ],
      [
        "ul",
        "d"
      ],
      [
        "o",
        "un"
      ],
      [
        "clas",
        "si"
      ],
      [
        "i",
        "mp"
      ],
      [
        "b",
        "ut"
      ],
      [
        "ar",
        "i"
      ],
      [
        "o",
        "us"
      ],
      [
        "al",
        "so"
      ],
      [
        "un",
        "ction"
      ],
      [
        "1",
        "2"
      ],
      [
        "O",
        "N"
      ],
      [
        "f",
        "ol"
      ],
      [
        "k",
        "ing"
      ],
      [
        "t",
        "ri"
      ],
      [
        "C",
        "o"
      ],
      [
        "ar",
        "ch"
      ],
      [
        "c",
        "ed"
      ],
      [
        "en",
        "ces"
      ],
      [
        "ic",
        "al"
      ],
      [
        "ti",
        "m"
      ],
      [
        "o",
        "p"
      ],
      [
        "o",
        "ver"
      ],
      [
        "ap",
        "p"
      ],
      [
        "cor",
        "p"
      ],
      [
        "an",
        "ce"
      ],
      [
        "1",
        "1"
      ],
      [
        "n",
        "et"
      ],
      [
        "on",
        "g"
      ],
      [
        "of",
        "t"
      ],
      [
        "us",
        "ing"
      ],
      [
        "f",
        "ul"
      ],
      [
        "n",
        "ow"
      ],
      [
        "we",
        "en"
      ],
      [
        "str",
        "u"
      ],
      [
        "t",
        "ing"
      ],
      [
        "la",
        "bel"
      ],
      [
        "s",
        "is"
      ],
      [
        "c",
        "ri"
      ],
      [
        "bet",
        "ween"
      ],
      [
        "w",
        "as"
      ],
      [
        "lay",
        "er"
      ],
      [
        "2",
        "3"
      ],
      [
        "ar",
        "g"
      ],
      [
        "wor",
        "k"
      ],
      [
        "f",
        "irst"
      ],
      [
        "s",
        "er"
      ],
      [
        "the",
        "n"
      ],
      [
        "token",
        "s"
      ],
      [
        "me",
        "an"
      ],
      [
        "fol",
        "low"
      ],
      [
        "ab",
        "le"
      ],
      [
        "ti",
        "me"
      ],
      [
        "co",
        "ur"
      ],
      [
        "A",
        "C"
      ],
      [
        "le",
        "x"
      ],
      [
        "sent",
        "ence"
      ],
      [
        "A",
        "n"
      ],
      [
        "at",
        "t"
      ],
      [
        "I",
        "N"
      ],
      [
        "th",
        "an"
      ],
      [
        "form",
        "ation"
      ],
      [
        "re",
        "qu"
      ],
      [
        "c",
        "re"
      ],
      [
        "si",
        "tion"
      ],
      [
        "f",
        "unction"
      ],
      [
        "w",
        "ay"
      ],
      [
        "al",
        "iz"
      ],
      [
        "ul",
        "ar"
      ],
      [
        "re",
        "ct"
      ],
      [
        "at",
        "ing"
      ],
      [
        "c",
        "a"
      ],
      [
        "t",
        "ag"
      ],
      [
        "cour",
        "se"
      ],
      [
        "l",
        "ic"
      ],
      [
        "l",
        "ish"
      ],
      [
        "in",
        "to"
      ],
      [
        "1",
        "3"
      ],
      [
        "re",
        "d"
      ],
      [
        "ma",
        "x"
      ],
      [
        "Th",
        "is"
      ],
      [
        "algorith",
        "m"
      ],
      [
        "ap",
        "ter"
      ],
      [
        "1",
        "5"
      ],
      [
        "i",
        "tion"
      ],
      [
        "w",
        "ill"
      ],
      [
        "ag",
        "es"
      ],
      [
        "1",
        "4"
      ],
      [
        "p",
        "end"
      ],
      [
        "E",
        "N"
      ],
      [
        "si",
        "gn"
      ],
      [
        "1",
        "7"
      ],
      [
        "a",
        "u"
      ],
      [
        "re",
        "g"
      ],
      [
        "l",
        "ing"
      ],
      [
        "n",
        "um"
      ],
      [
        "or",
        "t"
      ],
      [
        "s",
        "p"
      ],
      [
        "ro",
        "du"
      ],
      [
        "u",
        "e"
      ],
      [
        "call",
        "ed"
      ],
      [
        "su",
        "b"
      ],
      [
        "P",
        "T"
      ],
      [
        "i",
        "on"
      ],
      [
        "A",
        "N"
      ],
      [
        "U",
        "n"
      ],
      [
        "si",
        "mp"
      ],
      [
        "i",
        "f"
      ],
      [
        "enti",
        "ty"
      ],
      [
        "tas",
        "k"
      ],
      [
        "O",
        "R"
      ],
      [
        "w",
        "ard"
      ],
      [
        "En",
        "g"
      ],
      [
        "do",
        "c"
      ],
      [
        "l",
        "ar"
      ],
      [
        "in",
        "formation"
      ],
      [
        "e",
        "ar"
      ],
      [
        "an",
        "y"
      ],
      [
        "he",
        "re"
      ],
      [
        "d",
        "en"
      ],
      [
        "int",
        "rodu"
      ],
      [
        "g",
        "iv"
      ],
      [
        ")",
        ":"
      ],
      [
        "co",
        "mm"
      ],
      [
        "dat",
        "a"
      ],
      [
        "at",
        "es"
      ],
      [
        "ver",
        "y"
      ],
      [
        "cl",
        "u"
      ],
      [
        "m",
        "ul"
      ],
      [
        "Eng",
        "lish"
      ],
      [
        "b",
        "o"
      ],
      [
        "m",
        "il"
      ],
      [
        "pro",
        "du"
      ],
      [
        "doc",
        "ument"
      ],
      [
        "h",
        "igh"
      ],
      [
        "dif",
        "feren"
      ],
      [
        "on",
        "ly"
      ],
      [
        "the",
        "y"
      ],
      [
        "H",
        "A"
      ],
      [
        "e",
        "l"
      ],
      [
        "f",
        "er"
      ],
      [
        "mo",
        "st"
      ],
      [
        "corp",
        "us"
      ],
      [
        "en",
        "sion"
      ],
      [
        "is",
        "t"
      ],
      [
        "b",
        "le"
      ],
      [
        "a",
        "k"
      ],
      [
        "o",
        "b"
      ],
      [
        "in",
        "d"
      ],
      [
        "qu",
        "es"
      ],
      [
        "h",
        "ow"
      ],
      [
        "m",
        "ention"
      ],
      [
        "ter",
        "n"
      ],
      [
        "ma",
        "tic"
      ],
      [
        "PT",
        "ER"
      ],
      [
        "HA",
        "PTER"
      ],
      [
        "de",
        "pend"
      ],
      [
        "he",
        "ad"
      ],
      [
        "embedding",
        "s"
      ],
      [
        "s",
        "amp"
      ],
      [
        "N",
        "N"
      ],
      [
        "ap",
        "pro"
      ],
      [
        "2",
        "4"
      ],
      [
        "k",
        "now"
      ],
      [
        "ver",
        "b"
      ],
      [
        "1",
        "6"
      ],
      [
        "in",
        "clu"
      ],
      [
        "1",
        "8"
      ],
      [
        "ro",
        "ugh"
      ],
      [
        "ent",
        "s"
      ],
      [
        "C",
        "on"
      ],
      [
        "t",
        "est"
      ],
      [
        "se",
        "man"
      ],
      [
        "co",
        "un"
      ],
      [
        "ne",
        "ural"
      ],
      [
        "en",
        "g"
      ],
      [
        "v",
        "es"
      ],
      [
        "b",
        "i"
      ],
      [
        "u",
        "al"
      ],
      [
        "sent",
        "ences"
      ],
      [
        "ne",
        "ed"
      ],
      [
        "feat",
        "ures"
      ],
      [
        "S",
        "T"
      ],
      [
        "o",
        "m"
      ],
      [
        "seman",
        "tic"
      ],
      [
        "b",
        "ack"
      ],
      [
        "se",
        "e"
      ],
      [
        "ex",
        "pres"
      ],
      [
        "ne",
        "w"
      ],
      [
        "c",
        "al"
      ],
      [
        "p",
        "r"
      ],
      [
        "2",
        "5"
      ],
      [
        "po",
        "s"
      ],
      [
        "rel",
        "ations"
      ],
      [
        "2",
        "1"
      ],
      [
        "gra",
        "m"
      ],
      [
        "ab",
        "out"
      ],
      [
        "num",
        "ber"
      ],
      [
        "sing",
        "le"
      ],
      [
        "p",
        "as"
      ],
      [
        "tion",
        "s"
      ],
      [
        "ver",
        "s"
      ],
      [
        "dis",
        "course"
      ],
      [
        "M",
        "o"
      ],
      [
        "N",
        "L"
      ],
      [
        "s",
        "ti"
      ],
      [
        "mul",
        "ti"
      ],
      [
        "A",
        "R"
      ],
      [
        "n",
        "on"
      ],
      [
        "lo",
        "ss"
      ],
      [
        "c",
        "ent"
      ],
      [
        "the",
        "ir"
      ],
      [
        "is",
        "ion"
      ],
      [
        "di",
        "m"
      ],
      [
        "stru",
        "ct"
      ],
      [
        "att",
        "ention"
      ],
      [
        "differen",
        "t"
      ],
      [
        "b",
        "ig"
      ],
      [
        "f",
        "l"
      ],
      [
        "o",
        "u"
      ],
      [
        "w",
        "i"
      ],
      [
        "trans",
        "l"
      ],
      [
        "ch",
        "ar"
      ],
      [
        "v",
        "ari"
      ],
      [
        "en",
        "coder"
      ],
      [
        "ex",
        "p"
      ],
      [
        "pro",
        "ces"
      ],
      [
        "A",
        "L"
      ],
      [
        "co",
        "de"
      ],
      [
        "man",
        "y"
      ],
      [
        "a",
        "f"
      ],
      [
        "l",
        "ine"
      ],
      [
        "mean",
        "ing"
      ],
      [
        "S",
        "e"
      ],
      [
        "m",
        "b"
      ],
      [
        "dim",
        "ension"
      ],
      [
        "lar",
        "ge"
      ],
      [
        "2",
        "2"
      ],
      [
        "it",
        "e"
      ],
      [
        "si",
        "mil"
      ],
      [
        "in",
        "ter"
      ],
      [
        "spe",
        "ci"
      ],
      [
        "lear",
        "ning"
      ],
      [
        "ne",
        "g"
      ],
      [
        "ren",
        "t"
      ],
      [
        "su",
        "ch"
      ],
      [
        "langu",
        "ages"
      ],
      [
        "ca",
        "use"
      ],
      [
        "TI",
        "ON"
      ],
      [
        "j",
        "ust"
      ],
      [
        "s",
        "on"
      ],
      [
        "co",
        "gn"
      ],
      [
        "st",
        "and"
      ],
      [
        "classi",
        "fi"
      ],
      [
        "giv",
        "en"
      ],
      [
        "simil",
        "ar"
      ],
      [
        "t",
        "ur"
      ],
      [
        "th",
        "rough"
      ],
      [
        "f",
        "requ"
      ],
      [
        "a",
        "in"
      ],
      [
        "or",
        "m"
      ],
      [
        "de",
        "coder"
      ],
      [
        "e",
        "f"
      ],
      [
        "w",
        "er"
      ],
      [
        "ar",
        "t"
      ],
      [
        "ro",
        "ss"
      ],
      [
        "par",
        "tic"
      ],
      [
        "show",
        "s"
      ],
      [
        "ig",
        "n"
      ],
      [
        "s",
        "ame"
      ],
      [
        "ation",
        "al"
      ],
      [
        "AC",
        "L"
      ],
      [
        "char",
        "act"
      ],
      [
        "w",
        "a"
      ],
      [
        "di",
        "tion"
      ],
      [
        "follow",
        "ing"
      ],
      [
        "c",
        "k"
      ],
      [
        "ext",
        "ra"
      ],
      [
        "iz",
        "ation"
      ],
      [
        "p",
        "ri"
      ],
      [
        "gra",
        "mm"
      ],
      [
        "we",
        "ight"
      ],
      [
        "A",
        "S"
      ],
      [
        "j",
        "ect"
      ],
      [
        "l",
        "in"
      ],
      [
        "s",
        "um"
      ],
      [
        "comput",
        "e"
      ],
      [
        "tim",
        "es"
      ],
      [
        "te",
        "mp"
      ],
      [
        "n",
        "ext"
      ],
      [
        "at",
        "or"
      ],
      [
        "res",
        "ul"
      ],
      [
        "P",
        "ro"
      ],
      [
        "w",
        "here"
      ],
      [
        "par",
        "t"
      ],
      [
        "Ch",
        "apter"
      ],
      [
        "IN",
        "G"
      ],
      [
        "the",
        "re"
      ],
      [
        "su",
        "per"
      ],
      [
        "wor",
        "ks"
      ],
      [
        "fic",
        "ation"
      ],
      [
        "N",
        "P"
      ],
      [
        "T",
        "o"
      ],
      [
        "in",
        "ce"
      ],
      [
        "st",
        "ate"
      ],
      [
        "trans",
        "form"
      ],
      [
        "tur",
        "n"
      ],
      [
        "S",
        "o"
      ],
      [
        "as",
        "t"
      ],
      [
        "vector",
        "s"
      ],
      [
        "appro",
        "ach"
      ],
      [
        "u",
        "istic"
      ],
      [
        "ra",
        "m"
      ],
      [
        "cor",
        "rect"
      ],
      [
        "wh",
        "en"
      ],
      [
        "..",
        "."
      ],
      [
        "p",
        "on"
      ],
      [
        "me",
        "tho"
      ],
      [
        "valu",
        "e"
      ],
      [
        "the",
        "m"
      ],
      [
        "s",
        "a"
      ],
      [
        "s",
        "k"
      ],
      [
        "s",
        "en"
      ],
      [
        "s",
        "core"
      ],
      [
        "v",
        "o"
      ],
      [
        "v",
        "oc"
      ],
      [
        "ar",
        "k"
      ],
      [
        "sy",
        "n"
      ],
      [
        "i",
        "es"
      ],
      [
        "n",
        "am"
      ],
      [
        "train",
        "ed"
      ],
      [
        "NL",
        "P"
      ],
      [
        "H",
        "e"
      ],
      [
        "d",
        "ic"
      ],
      [
        "i",
        "ties"
      ],
      [
        "l",
        "ed"
      ],
      [
        "prob",
        "le"
      ],
      [
        "pa",
        "ir"
      ],
      [
        "E",
        "C"
      ],
      [
        "system",
        "s"
      ],
      [
        "E",
        "M"
      ],
      [
        "h",
        "um"
      ],
      [
        "le",
        "ment"
      ],
      [
        "I",
        "t"
      ],
      [
        "W",
        "h"
      ],
      [
        "wo",
        "uld"
      ],
      [
        "e",
        "valu"
      ],
      [
        "po",
        "sition"
      ],
      [
        "ction",
        "s"
      ],
      [
        "pos",
        "si"
      ],
      [
        "sti",
        "t"
      ],
      [
        "E",
        "L"
      ],
      [
        "c",
        "ase"
      ],
      [
        "c",
        "ision"
      ],
      [
        "d",
        "den"
      ],
      [
        "se",
        "arch"
      ],
      [
        "as",
        "sign"
      ],
      [
        "tas",
        "ks"
      ],
      [
        "19",
        "8"
      ],
      [
        "oft",
        "en"
      ],
      [
        "f",
        "t"
      ],
      [
        "ri",
        "x"
      ],
      [
        "des",
        "cri"
      ],
      [
        "an",
        "k"
      ],
      [
        "hi",
        "dden"
      ],
      [
        "represent",
        "ation"
      ],
      [
        "E",
        "x"
      ],
      [
        "res",
        "pon"
      ],
      [
        "ren",
        "ce"
      ],
      [
        "oo",
        "d"
      ],
      [
        "ro",
        "w"
      ],
      [
        "t",
        "in"
      ],
      [
        "oun",
        "d"
      ],
      [
        "tri",
        "b"
      ],
      [
        "00",
        "0"
      ],
      [
        "net",
        "work"
      ],
      [
        "s",
        "oft"
      ],
      [
        "ing",
        "s"
      ],
      [
        "co",
        "l"
      ],
      [
        "mat",
        "rix"
      ],
      [
        "n",
        "orm"
      ],
      [
        "re",
        "cogn"
      ],
      [
        "un",
        "d"
      ],
      [
        "oc",
        "cur"
      ],
      [
        "trib",
        "ution"
      ],
      [
        "c",
        "tive"
      ],
      [
        "i",
        "a"
      ],
      [
        "m",
        "or"
      ],
      [
        "al",
        "y"
      ],
      [
        "de",
        "fin"
      ],
      [
        "ce",
        "p"
      ],
      [
        "ol",
        "d"
      ],
      [
        "ste",
        "p"
      ],
      [
        "expres",
        "sion"
      ],
      [
        "s",
        "enti"
      ],
      [
        "19",
        "7"
      ],
      [
        "ans",
        "wer"
      ],
      [
        "valu",
        "es"
      ],
      [
        "it",
        "ect"
      ],
      [
        "oo",
        "k"
      ],
      [
        "W",
        "or"
      ],
      [
        "so",
        "ci"
      ],
      [
        "neg",
        "ative"
      ],
      [
        "3",
        "8"
      ],
      [
        "co",
        "he"
      ],
      [
        "igh",
[...]
